{
  "version": "1.0",
  "truncation": null,
  "padding": null,
  "added_tokens": [
    {
      "id": 0,
      "content": "<pad>",
      "single_word": false,
      "lstrip": false,
      "rstrip": false,
      "normalized": false,
      "special": true
    },
    {
      "id": 1,
      "content": "<bos>",
      "single_word": false,
      "lstrip": false,
      "rstrip": false,
      "normalized": false,
      "special": true
    },
    {
      "id": 2,
      "content": "<eos>",
      "single_word": false,
      "lstrip": false,
      "rstrip": false,
      "normalized": false,
      "special": true
    },
    {
      "id": 3,
      "content": "<unk>",
      "single_word": false,
      "lstrip": false,
      "rstrip": false,
      "normalized": false,
      "special": true
    }
  ],
  "normalizer": null,
  "pre_tokenizer": {
    "type": "ByteLevel",
    "add_prefix_space": false,
    "trim_offsets": true,
    "use_regex": true
  },
  "post_processor": {
    "type": "TemplateProcessing",
    "single": [
      {
        "SpecialToken": {
          "id": "<bos>",
          "type_id": 0
        }
      },
      {
        "Sequence": {
          "id": "A",
          "type_id": 0
        }
      },
      {
        "SpecialToken": {
          "id": "<eos>",
          "type_id": 0
        }
      }
    ],
    "pair": [
      {
        "SpecialToken": {
          "id": "<bos>",
          "type_id": 0
        }
      },
      {
        "Sequence": {
          "id": "A",
          "type_id": 0
        }
      },
      {
        "SpecialToken": {
          "id": "<eos>",
          "type_id": 0
        }
      },
      {
        "SpecialToken": {
          "id": "<bos>",
          "type_id": 0
        }
      },
      {
        "Sequence": {
          "id": "B",
          "type_id": 1
        }
      },
      {
        "SpecialToken": {
          "id": "<eos>",
          "type_id": 1
        }
      }
    ],
    "special_tokens": {
      "<bos>": {
        "id": "<bos>",
        "ids": [
          1
        ],
        "tokens": [
          "<bos>"
        ]
      },
      "<eos>": {
        "id": "<eos>",
        "ids": [
          2
        ],
        "tokens": [
          "<eos>"
        ]
      }
    }
  },
  "decoder": {
    "type": "ByteLevel",
    "add_prefix_space": true,
    "trim_offsets": true,
    "use_regex": true
  },
  "model": {
    "type": "BPE",
    "dropout": null,
    "unk_token": "<unk>",
    "continuing_subword_prefix": null,
    "end_of_word_suffix": null,
    "fuse_unk": false,
    "byte_fallback": false,
    "ignore_merges": false,
    "vocab": {
      "<pad>": 0,
      "<bos>": 1,
      "<eos>": 2,
      "<unk>": 3,
      "!": 4,
      "\"": 5,
      "#": 6,
      "$": 7,
      "%": 8,
      "&": 9,
      "'": 10,
      "(": 11,
      ")": 12,
      "*": 13,
      "+": 14,
      ",": 15,
      "-": 16,
      ".": 17,
      "/": 18,
      "0": 19,
      "1": 20,
      "2": 21,
      "3": 22,
      "4": 23,
      "5": 24,
      "6": 25,
      "7": 26,
      "8": 27,
      "9": 28,
      ":": 29,
      ";": 30,
      "<": 31,
      "=": 32,
      ">": 33,
      "?": 34,
      "@": 35,
      "A": 36,
      "B": 37,
      "C": 38,
      "D": 39,
      "E": 40,
      "F": 41,
      "G": 42,
      "H": 43,
      "I": 44,
      "J": 45,
      "K": 46,
      "L": 47,
      "M": 48,
      "N": 49,
      "O": 50,
      "P": 51,
      "Q": 52,
      "R": 53,
      "S": 54,
      "T": 55,
      "U": 56,
      "V": 57,
      "W": 58,
      "X": 59,
      "Y": 60,
      "Z": 61,
      "[": 62,
      "\\": 63,
      "]": 64,
      "^": 65,
      "_": 66,
      "`": 67,
      "a": 68,
      "b": 69,
      "c": 70,
      "d": 71,
      "e": 72,
      "f": 73,
      "g": 74,
      "h": 75,
      "i": 76,
      "j": 77,
      "k": 78,
      "l": 79,
      "m": 80,
      "n": 81,
      "o": 82,
      "p": 83,
      "q": 84,
      "r": 85,
      "s": 86,
      "t": 87,
      "u": 88,
      "v": 89,
      "w": 90,
      "x": 91,
      "y": 92,
      "z": 93,
      "{": 94,
      "|": 95,
      "}": 96,
      "~": 97,
      "¡": 98,
      "¢": 99,
      "£": 100,
      "¤": 101,
      "¥": 102,
      "¦": 103,
      "§": 104,
      "¨": 105,
      "©": 106,
      "ª": 107,
      "«": 108,
      "¬": 109,
      "®": 110,
      "¯": 111,
      "°": 112,
      "±": 113,
      "²": 114,
      "³": 115,
      "´": 116,
      "µ": 117,
      "¶": 118,
      "·": 119,
      "¸": 120,
      "¹": 121,
      "º": 122,
      "»": 123,
      "¼": 124,
      "½": 125,
      "¾": 126,
      "¿": 127,
      "Â": 128,
      "Ã": 129,
      "Ä": 130,
      "Å": 131,
      "Æ": 132,
      "Ç": 133,
      "È": 134,
      "É": 135,
      "Ê": 136,
      "Ë": 137,
      "Ì": 138,
      "Í": 139,
      "Î": 140,
      "Ï": 141,
      "Ð": 142,
      "Ñ": 143,
      "Ò": 144,
      "Ó": 145,
      "Ô": 146,
      "Õ": 147,
      "Ö": 148,
      "×": 149,
      "Ø": 150,
      "Ù": 151,
      "Ú": 152,
      "Û": 153,
      "Ü": 154,
      "Ý": 155,
      "à": 156,
      "á": 157,
      "â": 158,
      "ã": 159,
      "ä": 160,
      "å": 161,
      "æ": 162,
      "ç": 163,
      "è": 164,
      "é": 165,
      "ê": 166,
      "ë": 167,
      "ì": 168,
      "í": 169,
      "ï": 170,
      "ð": 171,
      "ĉ": 172,
      "Ċ": 173,
      "Ġ": 174,
      "Ģ": 175,
      "ģ": 176,
      "Ĥ": 177,
      "ĥ": 178,
      "Ħ": 179,
      "ħ": 180,
      "Ĩ": 181,
      "ĩ": 182,
      "Ī": 183,
      "ī": 184,
      "Ĭ": 185,
      "ĭ": 186,
      "Į": 187,
      "į": 188,
      "İ": 189,
      "ı": 190,
      "Ĳ": 191,
      "ĳ": 192,
      "Ĵ": 193,
      "ĵ": 194,
      "Ķ": 195,
      "ķ": 196,
      "ĸ": 197,
      "Ĺ": 198,
      "ĺ": 199,
      "Ļ": 200,
      "ļ": 201,
      "Ľ": 202,
      "ľ": 203,
      "Ŀ": 204,
      "ŀ": 205,
      "Ł": 206,
      "ł": 207,
      "Ń": 208,
      "Ġt": 209,
      "he": 210,
      "Ġa": 211,
      "in": 212,
      "Ġthe": 213,
      "er": 214,
      "on": 215,
      "Ġs": 216,
      "ed": 217,
      "Ġw": 218,
      "nd": 219,
      "Ġ,": 220,
      "re": 221,
      "Ġo": 222,
      "at": 223,
      "Ġf": 224,
      "it": 225,
      "Ġb": 226,
      "Ġc": 227,
      "Ġ.": 228,
      "or": 229,
      "en": 230,
      "ar": 231,
      "is": 232,
      "Ġand": 233,
      "an": 234,
      "es": 235,
      "as": 236,
      "Ġto": 237,
      "Ġin": 238,
      "Ġp": 239,
      "Ġof": 240,
      "ing": 241,
      "al": 242,
      "Ġh": 243,
      "ou": 244,
      "Ġm": 245,
      "Ġd": 246,
      "ic": 247,
      "om": 248,
      "le": 249,
      "ĠT": 250,
      "ion": 251,
      "il": 252,
      "Ġl": 253,
      "ĠS": 254,
      "Ġth": 255,
      "Ġwas": 256,
      "Ġre": 257,
      "Ġ\"": 258,
      "ent": 259,
      "Ġn": 260,
      "ro": 261,
      "el": 262,
      "ad": 263,
      "Ġe": 264,
      "st": 265,
      "ĠA": 266,
      "am": 267,
      "Ġg": 268,
      "id": 269,
      "Ġ1": 270,
      "ac": 271,
      "Ġhe": 272,
      "im": 273,
      "ay": 274,
      "Ġ@": 275,
      "ir": 276,
      "ĠC": 277,
      "Ġon": 278,
      "et": 279,
      "ĠThe": 280,
      "ly": 281,
      "ĠM": 282,
      "ec": 283,
      "ur": 284,
      "ot": 285,
      "ut": 286,
      "ĠB": 287,
      "ver": 288,
      "ig": 289,
      "ĠH": 290,
      "Ġfor": 291,
      "ol": 292,
      "Ġ'": 293,
      "ow": 294,
      "ĠI": 295,
      "ith": 296,
      "ve": 297,
      "Ġst": 298,
      "ter": 299,
      "Ġas": 300,
      "-@": 301,
      "Ġ@-@": 302,
      "Ġwith": 303,
      "us": 304,
      "Ġbe": 305,
      "Ġthat": 306,
      "Ġit": 307,
      "un": 308,
      "ce": 309,
      "Ġwh": 310,
      "Ġ2": 311,
      "Ġr": 312,
      "ation": 313,
      "ĠP": 314,
      "Ġal": 315,
      "ĠL": 316,
      "ch": 317,
      "ul": 318,
      "Ġis": 319,
      "ri": 320,
      "ĠR": 321,
      "ĠD": 322,
      "Ġat": 323,
      "Ġhis": 324,
      "Ġan": 325,
      "Ġby": 326,
      "her": 327,
      "ĠW": 328,
      "th": 329,
      "ain": 330,
      "and": 331,
      "Ġcon": 332,
      "ĠF": 333,
      "em": 334,
      "ted": 335,
      "os": 336,
      "rom": 337,
      "ĠG": 338,
      "pp": 339,
      "ag": 340,
      "um": 341,
      "ld": 342,
      "ĠN": 343,
      "Ġ)": 344,
      "Ġ(": 345,
      "ĠJ": 346,
      "ers": 347,
      "Ġ19": 348,
      "od": 349,
      "est": 350,
      "ct": 351,
      "00": 352,
      "ĠE": 353,
      "Ġfrom": 354,
      "ak": 355,
      "ere": 356,
      "ill": 357,
      "Ġpl": 358,
      "Ġcom": 359,
      "ew": 360,
      "igh": 361,
      "if": 362,
      "Ġwere": 363,
      "ore": 364,
      "ĠO": 365,
      "Ġse": 366,
      "ts": 367,
      "ard": 368,
      "Ġher": 369,
      "op": 370,
      "Ġhad": 371,
      "Ġy": 372,
      "all": 373,
      "Ġsh": 374,
      "Ġv": 375,
      "Ġpro": 376,
      "iv": 377,
      "Ġsu": 378,
      "res": 379,
      "Ġha": 380,
      "Ġk": 381,
      "Ġex": 382,
      "ĠHe": 383,
      "ap": 384,
      "gh": 385,
      "ies": 386,
      "Ġde": 387,
      "Ġu": 388,
      "Ġsa": 389,
      "ber": 390,
      "ab": 391,
      "ate": 392,
      "ear": 393,
      "ong": 394,
      "rou": 395,
      "ich": 396,
      "ack": 397,
      "qu": 398,
      "ud": 399,
      "ist": 400,
      "ame": 401,
      "oc": 402,
      "Ġch": 403,
      "Ġnot": 404,
      "Ġor": 405,
      "ess": 406,
      "our": 407,
      "Ġle": 408,
      "art": 409,
      "se": 410,
      "Ġare": 411,
      "ould": 412,
      "ant": 413,
      "ated": 414,
      "ive": 415,
      "ok": 416,
      "Ġsp": 417,
      "ĠK": 418,
      "ity": 419,
      "ort": 420,
      "ment": 421,
      "Ġbut": 422,
      "ast": 423,
      "ell": 424,
      "ĠIn": 425,
      "ip": 426,
      "ra": 427,
      "ge": 428,
      "ĠU": 429,
      "ally": 430,
      "Ġshe": 431,
      "Ġwhich": 432,
      "end": 433,
      "ther": 434,
      "ĠShe": 435,
      "ide": 436,
      "ĠSt": 437,
      "ust": 438,
      "ian": 439,
      "The": 440,
      "ost": 441,
      "ry": 442,
      "ime": 443,
      "ight": 444,
      "Ġâ": 445,
      "ome": 446,
      "Ġplay": 447,
      "ia": 448,
      "Ġup": 449,
      "Ġthey": 450,
      "ine": 451,
      "Ġtheir": 452,
      "ĠâĢ": 453,
      "Ġun": 454,
      "ord": 455,
      "ary": 456,
      "ily": 457,
      "oun": 458,
      "av": 459,
      "Ġwhe": 460,
      "out": 461,
      "Ġcl": 462,
      "ep": 463,
      "ous": 464,
      "rit": 465,
      "fter": 466,
      "uc": 467,
      "ial": 468,
      "hed": 469,
      "Ġ3": 470,
      "Ġso": 471,
      "ish": 472,
      "Ġsaid": 473,
      "Ġint": 474,
      "Ġgo": 475,
      "ĠThey": 476,
      "Ġhave": 477,
      "ure": 478,
      "ĠIt": 479,
      "irst": 480,
      "Ġinc": 481,
      "Ġtime": 482,
      "ie": 483,
      "Ġtr": 484,
      "ect": 485,
      "Ġday": 486,
      "Ġj": 487,
      "so": 488,
      "ff": 489,
      "og": 490,
      "very": 491,
      "cc": 492,
      "ik": 493,
      "ĠCh": 494,
      "Ġab": 495,
      "ue": 496,
      "Ġar": 497,
      "Ġsc": 498,
      "ved": 499,
      "Ġcont": 500,
      "Ġtw": 501,
      "Ġcomp": 502,
      "ater": 503,
      "ne": 504,
      "Ġout": 505,
      "Ġits": 506,
      "low": 507,
      "ions": 508,
      "ass": 509,
      "Ġfirst": 510,
      "Ġ200": 511,
      "Ġwor": 512,
      "ound": 513,
      "ĠV": 514,
      "ub": 515,
      "Ġwho": 516,
      "Ġad": 517,
      "Ġus": 518,
      "Ġlo": 519,
      "ond": 520,
      "ign": 521,
      "Ġalso": 522,
      "ough": 523,
      "Ġhim": 524,
      "Ġro": 525,
      "Ġone": 526,
      "Ġ;": 527,
      "Ġag": 528,
      "own": 529,
      "ark": 530,
      "ile": 531,
      "ind": 532,
      "age": 533,
      "Ġres": 534,
      "ree": 535,
      "Ġ20": 536,
      "ice": 537,
      "orm": 538,
      "ical": 539,
      "ire": 540,
      "are": 541,
      "per": 542,
      "pl": 543,
      "mer": 544,
      "Ġbec": 545,
      "Ġman": 546,
      "ake": 547,
      "tle": 548,
      "Ġper": 549,
      "ick": 550,
      "ade": 551,
      "one": 552,
      "ach": 553,
      "Ġtwo": 554,
      "iz": 555,
      "Ġwould": 556,
      "ans": 557,
      "Ġen": 558,
      "Ġother": 559,
      "ĠTh": 560,
      "Ġover": 561,
      "ru": 562,
      "ance": 563,
      "Ġthis": 564,
      "Ġ4": 565,
      "ace": 566,
      "Ġthere": 567,
      "way": 568,
      "Ġbo": 569,
      "Ġbeen": 570,
      "Ġall": 571,
      "Ġrec": 572,
      "Ġhas": 573,
      "Ġne": 574,
      "Ġ5": 575,
      "Ġapp": 576,
      ".@": 577,
      "Ġ@.@": 578,
      "Ġoff": 579,
      "my": 580,
      "ence": 581,
      "ely": 582,
      "Ġdis": 583,
      "uring": 584,
      "ĠY": 585,
      "ition": 586,
      "Ġ18": 587,
      "Ġwe": 588,
      "Ġthem": 589,
      "Ġyear": 590,
      "ĠâĢĵ": 591,
      "Ġafter": 592,
      ",@": 593,
      "Ġ@,@": 594,
      "ited": 595,
      "Ġser": 596,
      "lud": 597,
      "Ġpart": 598,
      "wn": 599,
      "Ġim": 600,
      "round": 601,
      "Ġinto": 602,
      "Ġ:": 603,
      "Ġpre": 604,
      "urn": 605,
      "ĠAl": 606,
      "ory": 607,
      "vel": 608,
      "Ġyou": 609,
      "ings": 610,
      "ress": 611,
      "Ġdes": 612,
      "ite": 613,
      "Ġatt": 614,
      "ations": 615,
      "land": 616,
      "ib": 617,
      "pt": 618,
      "Ġco": 619,
      "ug": 620,
      "ang": 621,
      "Ġcan": 622,
      "Ġte": 623,
      "Ġnew": 624,
      "ked": 625,
      "Ġ201": 626,
      "act": 627,
      "ction": 628,
      "Ġsm": 629,
      "ens": 630,
      "Ġkn": 631,
      "Ġev": 632,
      "Ġmore": 633,
      "ult": 634,
      "Ġwhen": 635,
      "Ġinclud": 636,
      "we": 637,
      "able": 638,
      "Ġlik": 639,
      "nder": 640,
      "Ġfe": 641,
      "les": 642,
      "man": 643,
      "Ġdec": 644,
      "Ġagain": 645,
      "te": 646,
      "ward": 647,
      "ied": 648,
      "ks": 649,
      "rough": 650,
      "old": 651,
      "Ġlit": 652,
      "Ġdo": 653,
      "ase": 654,
      "Ġvery": 655,
      "ood": 656,
      "oin": 657,
      "ased": 658,
      "Ġme": 659,
      "ren": 660,
      "vers": 661,
      "ates": 662,
      "Ġbet": 663,
      "ild": 664,
      "aus": 665,
      "ose": 666,
      "ious": 667,
      "Ġmom": 668,
      "ĠUn": 669,
      "Ġthan": 670,
      "reat": 671,
      "ors": 672,
      "ons": 673,
      "ric": 674,
      "Ġ6": 675,
      "ount": 676,
      "amp": 677,
      "Ġdid": 678,
      "ilm": 679,
      "Ġcomm": 680,
      "Ġinter": 681,
      "Ġno": 682,
      "Ġsome": 683,
      "Ġcould": 684,
      "Ġabout": 685,
      "ĠAn": 686,
      "anc": 687,
      "Ġmade": 688,
      "ember": 689,
      "ft": 690,
      "ail": 691,
      "ĠLily": 692,
      "Ġhapp": 693,
      "oy": 694,
      "Ġrem": 695,
      "oth": 696,
      "ered": 697,
      "Ġsec": 698,
      "riend": 699,
      "Ġpr": 700,
      "iss": 701,
      "Ġback": 702,
      "fer": 703,
      "Ġ7": 704,
      "form": 705,
      "Ġlittle": 706,
      "gan": 707,
      "als": 708,
      "Ġfin": 709,
      "Ġrep": 710,
      "Ġfilm": 711,
      "Ġmo": 712,
      "Ġqu": 713,
      "fore": 714,
      "'s": 715,
      "Ġgame": 716,
      "Ġfriend": 717,
      "Ġonly": 718,
      "ix": 719,
      "Ġcol": 720,
      "ĠAr": 721,
      "ful": 722,
      "Ġcons": 723,
      "Ġunder": 724,
      "ollow": 725,
      "rop": 726,
      "Ġmost": 727,
      "rib": 728,
      "Ġend": 729,
      "hen": 730,
      "Ġear": 731,
      "Ġduring": 732,
      "Ġthen": 733,
      "Ġfl": 734,
      "On": 735,
      "Ġchar": 736,
      "Ġ8": 737,
      "ĠMar": 738,
      "Ġpe": 739,
      "Ġsaw": 740,
      "ath": 741,
      "ird": 742,
      "ict": 743,
      "ason": 744,
      "ents": 745,
      "hn": 746,
      "ween": 747,
      "Ġthree": 748,
      "Ġwhile": 749,
      "ss": 750,
      "amed": 751,
      "Ġspec": 752,
      "Ġbig": 753,
      "Ġimp": 754,
      "Ġgr": 755,
      "Ġret": 756,
      "Ġcar": 757,
      "Ġsong": 758,
      "Ġstar": 759,
      "ubl": 760,
      "Ġthrough": 761,
      "hip": 762,
      "ob": 763,
      "Ġfound": 764,
      "aw": 765,
      "ning": 766,
      "Ġlater": 767,
      "Ġ9": 768,
      "orth": 769,
      "ever": 770,
      "Ġam": 771,
      "Ġbetween": 772,
      "Ġbl": 773,
      "Ġbu": 774,
      "Ġcent": 775,
      "ton": 776,
      "Ġbr": 777,
      "Ġprod": 778,
      "Ġhel": 779,
      "Ġrel": 780,
      "Ġlook": 781,
      "Ġwhere": 782,
      "irl": 783,
      "Ġrele": 784,
      "Ġhappy": 785,
      "Ġacc": 786,
      "Ġ199": 787,
      "anted": 788,
      "outh": 789,
      "Ġnum": 790,
      "tern": 791,
      "ational": 792,
      "iew": 793,
      "ĠĊ": 794,
      "ĠNew": 795,
      "Ġ00": 796,
      "Ġwork": 797,
      "ished": 798,
      "ron": 799,
      "Ġact": 800,
      "Ġbefore": 801,
      "red": 802,
      "hes": 803,
      "Ġshow": 804,
      "ating": 805,
      "Ġaround": 806,
      "led": 807,
      "Ġcall": 808,
      "Ġlike": 809,
      "ise": 810,
      "Ġfollow": 811,
      "Ġpos": 812,
      "Ġsur": 813,
      "ĠSp": 814,
      "ĠJo": 815,
      "ave": 816,
      "meric": 817,
      "uch": 818,
      "ĠEn": 819,
      "ĠTim": 820,
      "ular": 821,
      "Ġsub": 822,
      "ause": 823,
      "ters": 824,
      "ĠAmeric": 825,
      "Ġreg": 826,
      "enc": 827,
      "ving": 828,
      "Ġac": 829,
      "ral": 830,
      "In": 831,
      "ock": 832,
      "ames": 833,
      "Ġass": 834,
      "Ġsecond": 835,
      "get": 836,
      "Ġsuch": 837,
      "Ġran": 838,
      "ener": 839,
      "Ġmus": 840,
      "Ġele": 841,
      "ained": 842,
      "ey": 843,
      "Ġupon": 844,
      "ouse": 845,
      "Ġwanted": 846,
      "ided": 847,
      "ision": 848,
      "Ġfour": 849,
      "Ġbeing": 850,
      "eth": 851,
      "ived": 852,
      "Ġrecord": 853,
      "ph": 854,
      "Ġhelp": 855,
      "side": 856,
      "Ġdef": 857,
      "Ġop": 858,
      "ĠLe": 859,
      "iel": 860,
      "other": 861,
      "Ġep": 862,
      "Ġ000": 863,
      "Ġhigh": 864,
      "Ġyears": 865,
      "Ġind": 866,
      "au": 867,
      "bum": 868,
      "Ġwrit": 869,
      "ool": 870,
      "Ġwent": 871,
      "Ġform": 872,
      "Ġseason": 873,
      "Ġused": 874,
      "Ġnamed": 875,
      "ane": 876,
      "ty": 877,
      "son": 878,
      "Ġlar": 879,
      "elt": 880,
      "Ġdown": 881,
      ".\"": 882,
      "Ġboth": 883,
      "Ġlong": 884,
      "io": 885,
      "ident": 886,
      "elf": 887,
      "Ġgirl": 888,
      "ĠOn": 889,
      "ĠThis": 890,
      "Ġbro": 891,
      "ised": 892,
      "'t": 893,
      "Ġbecame": 894,
      "ten": 895,
      "Ġteam": 896,
      "Ġany": 897,
      "owever": 898,
      "ode": 899,
      "Once": 900,
      "Ġsy": 901,
      "ual": 902,
      "ific": 903,
      "ting": 904,
      "Ġsupp": 905,
      "ĠCom": 906,
      "orn": 907,
      "ept": 908,
      "ather": 909,
      "Ġent": 910,
      "Ġexp": 911,
      "Ġmany": 912,
      "Ġ10": 913,
      "ove": 914,
      "Ġalbum": 915,
      "ys": 916,
      "til": 917,
      "Ġset": 918,
      "Ġsay": 919,
      "ven": 920,
      "Ġloc": 921,
      "ll": 922,
      "Ġsing": 923,
      "Ġwhat": 924,
      "ax": 925,
      "air": 926,
      "Ġfun": 927,
      "Ġmon": 928,
      "Ġepis": 929,
      "Ġinv": 930,
      "Ġrun": 931,
      "ics": 932,
      "ury": 933,
      "Ġpubl": 934,
      "ank": 935,
      "Ġwar": 936,
      "Ġagainst": 937,
      "ale": 938,
      "az": 939,
      "atch": 940,
      "Ġthough": 941,
      "!\"": 942,
      "ures": 943,
      "Ġstr": 944,
      "iver": 945,
      "ĠAs": 946,
      "ĠSh": 947,
      "Ġadd": 948,
      "Ġ/": 949,
      "Ġnumber": 950,
      "Ġpres": 951,
      "ince": 952,
      "Ġmake": 953,
      "Ġtook": 954,
      "Ġsever": 955,
      "Ġcre": 956,
      "Ġuntil": 957,
      "ĠRe": 958,
      "ried": 959,
      "Ġwell": 960,
      "na": 961,
      "aj": 962,
      "Ġpol": 963,
      "Ġair": 964,
      "Ġcharac": 965,
      "velop": 966,
      "ier": 967,
      "Ġmin": 968,
      "ĠOne": 969,
      "Ġlead": 970,
      "Ġ17": 971,
      "ared": 972,
      "Ġincluding": 973,
      "Ġsom": 974,
      "Ġdif": 975,
      "erm": 976,
      "ople": 977,
      "ĠBen": 978,
      "igin": 979,
      "ife": 980,
      "ĠBrit": 981,
      "row": 982,
      "ĠAt": 983,
      "ork": 984,
      "Ġopen": 985,
      "Ġhome": 986,
      "der": 987,
      "pr": 988,
      "ower": 989,
      "aking": 990,
      "Ġrece": 991,
      "Ġcap": 992,
      "ĠâĢĶ": 993,
      "Ġappear": 994,
      "Ġperform": 995,
      "pped": 996,
      "ross": 997,
      "vern": 998,
      "Ġcalled": 999,
      "Ġwill": 1000,
      "Ġseries": 1001,
      "ĠUnited": 1002,
      "ash": 1003,
      "its": 1004,
      "Ġcontin": 1005,
      "Ġtoo": 1006,
      "Ġbecause": 1007,
      "Ġem": 1008,
      "ov": 1009,
      "Ġfelt": 1010,
      "Ġsee": 1011,
      "Ġmain": 1012,
      "ĠJohn": 1013,
      "ober": 1014,
      "Ġ15": 1015,
      "ned": 1016,
      "ĠWh": 1017,
      "ines": 1018,
      "Ġfriends": 1019,
      "Ġ0": 1020,
      "up": 1021,
      "iet": 1022,
      "Ġbegan": 1023,
      "Ġ12": 1024,
      "Ġbat": 1025,
      "Ġfam": 1026,
      "Ġnear": 1027,
      "roup": 1028,
      "Ġown": 1029,
      "ized": 1030,
      "ued": 1031,
      "Ġship": 1032,
      "ah": 1033,
      "ĠSc": 1034,
      "ield": 1035,
      "vent": 1036,
      "any": 1037,
      "xt": 1038,
      "Ġdevelop": 1039,
      "Ġstud": 1040,
      "Ġmill": 1041,
      "Ġdep": 1042,
      "Ġinst": 1043,
      "ull": 1044,
      "ities": 1045,
      "ually": 1046,
      "ired": 1047,
      "ins": 1048,
      "Ġext": 1049,
      "Ġepisode": 1050,
      "ley": 1051,
      "ram": 1052,
      "Ġ194": 1053,
      "Ġdire": 1054,
      "ced": 1055,
      "Ġ198": 1056,
      "iled": 1057,
      "Ġeach": 1058,
      "ĠEng": 1059,
      "Ġorigin": 1060,
      "Ġpop": 1061,
      "though": 1062,
      "Ġseveral": 1063,
      "ert": 1064,
      "Ġob": 1065,
      "Ġpeople": 1066,
      "ments": 1067,
      "Ġreturn": 1068,
      "Ġsmall": 1069,
      "uck": 1070,
      "ative": 1071,
      "Ġsign": 1072,
      "Ġold": 1073,
      "Ġknown": 1074,
      "ĠTom": 1075,
      "Ġcare": 1076,
      "Ġmusic": 1077,
      "olog": 1078,
      "chool": 1079,
      "emb": 1080,
      "Ġcame": 1081,
      "ĠWar": 1082,
      "Ġconc": 1083,
      "Ġmuch": 1084,
      "Ġaway": 1085,
      "Ġ16": 1086,
      "ĠAmerican": 1087,
      "Ġcomple": 1088,
      "Ġexc": 1089,
      "ĠAfter": 1090,
      "ĠCon": 1091,
      "Ġjust": 1092,
      "Ġbel": 1093,
      "iam": 1094,
      "Ġdist": 1095,
      "Ġpass": 1096,
      "Ġdesign": 1097,
      "ged": 1098,
      "ink": 1099,
      "ĠAust": 1100,
      "Ġmet": 1101,
      "ĠBr": 1102,
      "ĠInd": 1103,
      "view": 1104,
      "Ġuse": 1105,
      "Ġest": 1106,
      "Ġ11": 1107,
      "ĠMay": 1108,
      "eb": 1109,
      "Ġasked": 1110,
      "Ġgood": 1111,
      "Ġprov": 1112,
      "ĠZ": 1113,
      "Ġget": 1114,
      "Ġif": 1115,
      "Ġearly": 1116,
      "Ġdisc": 1117,
      "ĠCl": 1118,
      "Ġinf": 1119,
      "oot": 1120,
      "Ġstarted": 1121,
      "Ġevery": 1122,
      "Ġresp": 1123,
      "Ġtrans": 1124,
      "osed": 1125,
      "Ġplayed": 1126,
      "Ġalong": 1127,
      "Ġexpl": 1128,
      "ially": 1129,
      "ĠFr": 1130,
      "Ġ196": 1131,
      "ured": 1132,
      "Ġart": 1133,
      "Ġfeat": 1134,
      "Ġdesc": 1135,
      "Ġreleased": 1136,
      "ner": 1137,
      "Ġ197": 1138,
      "Ġpoin": 1139,
      "Ġph": 1140,
      "Ġeff": 1141,
      "ism": 1142,
      "ger": 1143,
      "erson": 1144,
      "Ġgener": 1145,
      "ists": 1146,
      "Ġland": 1147,
      "ivers": 1148,
      "ĠBl": 1149,
      "Ġtoget": 1150,
      "Ġtogether": 1151,
      "ves": 1152,
      "une": 1153,
      "stem": 1154,
      "Ġput": 1155,
      "Ġcrit": 1156,
      "Ġhead": 1157,
      "Ġgroup": 1158,
      "Ġmay": 1159,
      "Ġthese": 1160,
      "Ġsk": 1161,
      "Ġmil": 1162,
      "ĠUS": 1163,
      "Ġhand": 1164,
      "ris": 1165,
      "Ġsl": 1166,
      "Ġmod": 1167,
      "Ġsame": 1168,
      "Ġmillion": 1169,
      "Ġsucc": 1170,
      "ected": 1171,
      "Ġcount": 1172,
      "Ġoffic": 1173,
      "gg": 1174,
      "Ġmy": 1175,
      "Ġgu": 1176,
      "inc": 1177,
      "Ġred": 1178,
      "ible": 1179,
      "ĠBritish": 1180,
      "Ġsuccess": 1181,
      "ium": 1182,
      "ĠCol": 1183,
      "ĠGer": 1184,
      "ains": 1185,
      "Ġ$": 1186,
      "Ġwater": 1187,
      "Ġprom": 1188,
      "Ġfind": 1189,
      "Ġturn": 1190,
      "ble": 1191,
      "ĠBut": 1192,
      "Ġsim": 1193,
      "und": 1194,
      "wards": 1195,
      "aced": 1196,
      "ution": 1197,
      "Ġtake": 1198,
      "ek": 1199,
      "ĠYou": 1200,
      "by": 1201,
      "Ġwin": 1202,
      "alk": 1203,
      "Ġ13": 1204,
      "Ġgovern": 1205,
      "Ġplan": 1206,
      "Ġbook": 1207,
      "Ġbird": 1208,
      "ĠWor": 1209,
      "uced": 1210,
      "ajor": 1211,
      "Ġpar": 1212,
      "Ġattack": 1213,
      "Ġoper": 1214,
      "Ġeven": 1215,
      "?\"": 1216,
      "ended": 1217,
      "Ġbuild": 1218,
      "ĠAug": 1219,
      "ern": 1220,
      "ĠSept": 1221,
      "aining": 1222,
      "els": 1223,
      "Ġway": 1224,
      "emp": 1225,
      "Ġbest": 1226,
      "Ġdescrib": 1227,
      "ĠSeptember": 1228,
      "Ġpark": 1229,
      "Ġprodu": 1230,
      "Ã©": 1231,
      "ĠAugust": 1232,
      "augh": 1233,
      "Ġmar": 1234,
      "ĠStates": 1235,
      "Ġrest": 1236,
      "ret": 1237,
      "Ġcharacter": 1238,
      "rap": 1239,
      "Ġboy": 1240,
      "Ġloved": 1241,
      "imes": 1242,
      "ĠCan": 1243,
      "Ġplaying": 1244,
      "ĠAll": 1245,
      "orted": 1246,
      "ĠAd": 1247,
      "ĠWe": 1248,
      "Ġdecided": 1249,
      "Ġfamily": 1250,
      "tal": 1251,
      "Ġworld": 1252,
      "Ġcr": 1253,
      "yp": 1254,
      "Ġdiffer": 1255,
      "ke": 1256,
      "Ġocc": 1257,
      "Ġkm": 1258,
      "ues": 1259,
      "ething": 1260,
      "Ġstill": 1261,
      "ject": 1262,
      "Ġtra": 1263,
      "Ġconst": 1264,
      "ored": 1265,
      "Ġsix": 1266,
      "ling": 1267,
      "Ġhouse": 1268,
      "ĠJu": 1269,
      "Ġnorth": 1270,
      "Ġed": 1271,
      "Ġ14": 1272,
      "Ġsw": 1273,
      "Ġclass": 1274,
      "Ġlooked": 1275,
      "ĠBe": 1276,
      "Ġreceived": 1277,
      "ny": 1278,
      "ĠDe": 1279,
      "Ġplace": 1280,
      "ched": 1281,
      "ĠAustral": 1282,
      "Ġnow": 1283,
      "Ġhist": 1284,
      "ĠIs": 1285,
      "ĠOct": 1286,
      "ĠGerman": 1287,
      "sp": 1288,
      "Ġsystem": 1289,
      "ement": 1290,
      "Ġsomething": 1291,
      "ĠAnd": 1292,
      "Ġpo": 1293,
      "Ġconsid": 1294,
      "Ġfollowing": 1295,
      "uss": 1296,
      "Ġla": 1297,
      "ĠHowever": 1298,
      "ately": 1299,
      "Ġleft": 1300,
      "Ġ195": 1301,
      "ĠHis": 1302,
      "ĠWorld": 1303,
      "ces": 1304,
      "ets": 1305,
      "ĠCar": 1306,
      "ways": 1307,
      "ĠQ": 1308,
      "Ġfive": 1309,
      "Ġann": 1310,
      "Ġsmiled": 1311,
      "Ġstate": 1312,
      "ange": 1313,
      "Ġgiv": 1314,
      "gin": 1315,
      "Ġconf": 1316,
      "ck": 1317,
      "Ġgave": 1318,
      "Ġaut": 1319,
      "Ġ193": 1320,
      "ĠOctober": 1321,
      "Ġband": 1322,
      "ient": 1323,
      "Ġnever": 1324,
      "ene": 1325,
      "oss": 1326,
      "Ġanother": 1327,
      "ots": 1328,
      "rol": 1329,
      "self": 1330,
      "ĠFor": 1331,
      "Ġchild": 1332,
      "Ġarea": 1333,
      "ute": 1334,
      "Ġref": 1335,
      "Ġpartic": 1336,
      "ility": 1337,
      "Ġbre": 1338,
      "Ġhow": 1339,
      "Ġvar": 1340,
      "Ġcity": 1341,
      "ĠHer": 1342,
      "Ġnext": 1343,
      "cted": 1344,
      "den": 1345,
      "Ġcentury": 1346,
      "ĠTimmy": 1347,
      "Ġstory": 1348,
      "Ġ191": 1349,
      "ined": 1350,
      "med": 1351,
      "Ġrepl": 1352,
      "ĠDec": 1353,
      "ina": 1354,
      "Ġname": 1355,
      "Ġthought": 1356,
      "ians": 1357,
      "Ġwant": 1358,
      "ars": 1359,
      "esp": 1360,
      "mber": 1361,
      "ects": 1362,
      "Ġmajor": 1363,
      "ission": 1364,
      "ĠSe": 1365,
      "Ġspecial": 1366,
      "ĠNorth": 1367,
      "Ġ]": 1368,
      "ached": 1369,
      "Ġdet": 1370,
      "ĠJan": 1371,
      "ady": 1372,
      "Ġpublic": 1373,
      "ĠJune": 1374,
      "ording": 1375,
      "urch": 1376,
      "ection": 1377,
      "Ġsince": 1378,
      "Ġallow": 1379,
      "Ġ[": 1380,
      "Ġschool": 1381,
      "Ġmed": 1382,
      "orp": 1383,
      "avy": 1384,
      "Ġreal": 1385,
      "Ġlarge": 1386,
      "Ġ%": 1387,
      "hest": 1388,
      "Ġball": 1389,
      "Ġsingle": 1390,
      "idge": 1391,
      "ĠWhen": 1392,
      "aim": 1393,
      "Ġwind": 1394,
      "ĠKing": 1395,
      "Ġgreat": 1396,
      "ook": 1397,
      "ively": 1398,
      "ĠJuly": 1399,
      "ilt": 1400,
      "ovember": 1401,
      "ĠNovember": 1402,
      "Ġline": 1403,
      "Ġneed": 1404,
      "Ġvis": 1405,
      "reen": 1406,
      "raft": 1407,
      "vious": 1408,
      "Ġcur": 1409,
      "ctor": 1410,
      "Ġwon": 1411,
      "ĠEd": 1412,
      "Ġevent": 1413,
      "ĠApr": 1414,
      "ĠHar": 1415,
      "ĠMe": 1416,
      "ĠApril": 1417,
      "Ġadv": 1418,
      "lish": 1419,
      "Ġtop": 1420,
      "ĠTr": 1421,
      "Ġsays": 1422,
      "uary": 1423,
      "rote": 1424,
      "ĠMarch": 1425,
      "aged": 1426,
      "ĠComm": 1427,
      "ĠWill": 1428,
      "ants": 1429,
      "Ġknow": 1430,
      "Ġfinal": 1431,
      "Ġsouth": 1432,
      "ently": 1433,
      "ats": 1434,
      "Ġincre": 1435,
      "ĠYork": 1436,
      "ĠGr": 1437,
      "Ġlife": 1438,
      "Ġcour": 1439,
      "One": 1440,
      "Ġanim": 1441,
      "ness": 1442,
      "ional": 1443,
      "Ġ30": 1444,
      "oon": 1445,
      "Ġgot": 1446,
      "ĠPl": 1447,
      "Ġappro": 1448,
      "Ġthird": 1449,
      "ural": 1450,
      "Ã¢": 1451,
      "Ġmonth": 1452,
      "..": 1453,
      "ified": 1454,
      "ales": 1455,
      "orts": 1456,
      "Ġdue": 1457,
      "Ġprot": 1458,
      "Ġwrote": 1459,
      "rist": 1460,
      "Ġpower": 1461,
      "akes": 1462,
      "ĠPh": 1463,
      "ĠMc": 1464,
      "Ġfore": 1465,
      "Ġperson": 1466,
      "ney": 1467,
      "Ġincluded": 1468,
      "Ġdel": 1469,
      "Ĥ¬": 1470,
      "ody": 1471,
      "cept": 1472,
      "ox": 1473,
      "ague": 1474,
      "ĠJack": 1475,
      "ony": 1476,
      "rew": 1477,
      "alf": 1478,
      "ister": 1479,
      "erv": 1480,
      "ĠSouth": 1481,
      "ĠDecember": 1482,
      "rod": 1483,
      "Ġcolle": 1484,
      "Ġbelie": 1485,
      "ages": 1486,
      "Ġheld": 1487,
      "ball": 1488,
      "Ġbased": 1489,
      "Ġgovernment": 1490,
      "Ġcamp": 1491,
      "Ġ25": 1492,
      "Ġtrack": 1493,
      "Ġshort": 1494,
      "Ġvers": 1495,
      "oman": 1496,
      "Ġgun": 1497,
      "ically": 1498,
      "Ġfur": 1499,
      "ience": 1500,
      "Ġjoin": 1501,
      "Ġoutside": 1502,
      "Ġtit": 1503,
      "ĠJanuary": 1504,
      "Ġled": 1505,
      "âĤ¬": 1506,
      "Ġlast": 1507,
      "Ġserv": 1508,
      "ital": 1509,
      "apan": 1510,
      "Ġdifferent": 1511,
      "ĠBy": 1512,
      "Ġlear": 1513,
      "Ġgames": 1514,
      "Ġ192": 1515,
      "Ġcond": 1516,
      "over": 1517,
      "Ġthings": 1518,
      "Ġkill": 1519,
      "Ġfar": 1520,
      "Ġcle": 1521,
      "Ġtri": 1522,
      "ĠGe": 1523,
      "ĠPr": 1524,
      "ump": 1525,
      "Ġdeath": 1526,
      "Ġeng": 1527,
      "ott": 1528,
      "Ġreview": 1529,
      "ĠEu": 1530,
      "Ġfeel": 1531,
      "ives": 1532,
      "oll": 1533,
      "Ġrequ": 1534,
      "ĠSam": 1535,
      "ĠJapan": 1536,
      "Ġ...": 1537,
      "Ġprog": 1538,
      "Ġprevious": 1539,
      "Ġsad": 1540,
      "Ġleg": 1541,
      "ĠBro": 1542,
      "ara": 1543,
      "Ġdem": 1544,
      "Ġdescribed": 1545,
      "Ġmen": 1546,
      "ened": 1547,
      "Ġmag": 1548,
      "ĠII": 1549,
      "Ġbeh": 1550,
      "Lily": 1551,
      "Ġsound": 1552,
      "Ġshould": 1553,
      "eter": 1554,
      "ike": 1555,
      "Ġorgan": 1556,
      "lu": 1557,
      "ature": 1558,
      "ideo": 1559,
      "Ġcontinued": 1560,
      "embers": 1561,
      "Ġhaving": 1562,
      "Ġlate": 1563,
      "Ġthose": 1564,
      "Ġalways": 1565,
      "ĠOr": 1566,
      "Ġmark": 1567,
      "Ġfew": 1568,
      "Ġstrong": 1569,
      "Ġgl": 1570,
      "omin": 1571,
      "ilar": 1572,
      "iod": 1573,
      "Ġopp": 1574,
      "Ġport": 1575,
      ",\"": 1576,
      "Ġide": 1577,
      "Ġposs": 1578,
      "sh": 1579,
      "Ġdam": 1580,
      "ĠEm": 1581,
      "Ġmove": 1582,
      "Ġcommand": 1583,
      "Ġsupport": 1584,
      "Ġview": 1585,
      "Ġspe": 1586,
      "hy": 1587,
      "Ġstorm": 1588,
      "Ġpri": 1589,
      "Ġprop": 1590,
      "rench": 1591,
      "Ġterm": 1592,
      "Ġlet": 1593,
      "Ġcapt": 1594,
      "Ġ100": 1595,
      "eng": 1596,
      "Ġfle": 1597,
      "ivision": 1598,
      "ruct": 1599,
      "Ġoriginal": 1600,
      "Ġche": 1601,
      "Ġdays": 1602,
      "raw": 1603,
      "Ġside": 1604,
      "ung": 1605,
      "Ġstand": 1606,
      "aster": 1607,
      "ĠÂ": 1608,
      "Ġdr": 1609,
      "ograp": 1610,
      "ior": 1611,
      "itions": 1612,
      "Ġground": 1613,
      "Ġsold": 1614,
      "Ġdest": 1615,
      "ĠGu": 1616,
      "iversity": 1617,
      "yl": 1618,
      "Ġbuilt": 1619,
      "Ġtown": 1620,
      "Ġiss": 1621,
      "Ġyour": 1622,
      "ĠBat": 1623,
      "Ġmatch": 1624,
      "Ġexper": 1625,
      "ebru": 1626,
      "Ġless": 1627,
      "ont": 1628,
      "eep": 1629,
      "Ġlist": 1630,
      "Ġel": 1631,
      "Ġroom": 1632,
      "ĠRo": 1633,
      "ebruary": 1634,
      "Ġspecies": 1635,
      "ĠFebruary": 1636,
      "Ġav": 1637,
      "ĠTe": 1638,
      "ĠEurop": 1639,
      "ĠMan": 1640,
      "Ġhur": 1641,
      "cl": 1642,
      "Ġalthough": 1643,
      "Ġmid": 1644,
      "ights": 1645,
      "ides": 1646,
      "Ġwithin": 1647,
      "Ġaddition": 1648,
      "Ġimport": 1649,
      "Ġmembers": 1650,
      "oci": 1651,
      "hor": 1652,
      "ĠThere": 1653,
      "Ġfr": 1654,
      "Ġdeb": 1655,
      "Ġperiod": 1656,
      "ĠChrist": 1657,
      "Ġcaus": 1658,
      "Ġtold": 1659,
      "ards": 1660,
      "Ġarm": 1661,
      "Ġfire": 1662,
      "oute": 1663,
      "Th": 1664,
      "ĠFl": 1665,
      "br": 1666,
      "isted": 1667,
      "ĠFrench": 1668,
      "Ġformer": 1669,
      "ences": 1670,
      "hel": 1671,
      "ances": 1672,
      "ĠEurope": 1673,
      "Ġright": 1674,
      "Ġinit": 1675,
      "Ġcast": 1676,
      "Ġdog": 1677,
      "Ġresult": 1678,
      "Ġestab": 1679,
      "reet": 1680,
      "Ġrole": 1681,
      "Ġarri": 1682,
      "Ġoften": 1683,
      "Ġrelease": 1684,
      "lev": 1685,
      "ĠPro": 1686,
      "Ġcontrol": 1687,
      "ead": 1688,
      "Ġhowever": 1689,
      "ech": 1690,
      "ĠNational": 1691,
      "Ġbus": 1692,
      "enn": 1693,
      "Ġpresent": 1694,
      "ese": 1695,
      "ense": 1696,
      "Ġsqu": 1697,
      "aut": 1698,
      "let": 1699,
      "uted": 1700,
      "Ġvideo": 1701,
      "Ġmoved": 1702,
      "ĠBar": 1703,
      "Ġwithout": 1704,
      "Ġpost": 1705,
      "Ġhum": 1706,
      "irc": 1707,
      "ulation": 1708,
      "aren": 1709,
      "Ġ21": 1710,
      "ator": 1711,
      "Ġpolit": 1712,
      "ĠPar": 1713,
      "Ġmat": 1714,
      "Ġdidn": 1715,
      "bo": 1716,
      "Ġliked": 1717,
      "ropical": 1718,
      "ery": 1719,
      "ĠWest": 1720,
      "Ġlost": 1721,
      "Ġhimself": 1722,
      "app": 1723,
      "Ġexcited": 1724,
      "ham": 1725,
      "Ġfurther": 1726,
      "Ġamong": 1727,
      "Ġmaking": 1728,
      "Ġroad": 1729,
      "Ġlocal": 1730,
      "ops": 1731,
      "ested": 1732,
      "atic": 1733,
      "par": 1734,
      "Ġcover": 1735,
      "Ġ2010": 1736,
      "Ġsimilar": 1737,
      "Ġequ": 1738,
      "Ġhug": 1739,
      "ĠMus": 1740,
      "Ġant": 1741,
      "ape": 1742,
      "ĠX": 1743,
      "ler": 1744,
      "itary": 1745,
      "Ġclaim": 1746,
      "ring": 1747,
      "Ġsent": 1748,
      "Ġweek": 1749,
      "Ġdri": 1750,
      "ĠWilliam": 1751,
      "Ġbas": 1752,
      "aken": 1753,
      "gy": 1754,
      "Ġ24": 1755,
      "iving": 1756,
      "ize": 1757,
      "ĠAm": 1758,
      "estern": 1759,
      "Ġhig": 1760,
      "ront": 1761,
      "Ġsit": 1762,
      "Ġlaw": 1763,
      "Ġhalf": 1764,
      "urs": 1765,
      "ĠMin": 1766,
      "ĠDuring": 1767,
      "ream": 1768,
      "ĠGeor": 1769,
      "Ġtree": 1770,
      "Ġfre": 1771,
      "Ġbecome": 1772,
      "Ġtyp": 1773,
      "Ġtre": 1774,
      "Ġbetter": 1775,
      "Ġconsidered": 1776,
      "Ġlevel": 1777,
      "oung": 1778,
      "Ġfav": 1779,
      "ones": 1780,
      "line": 1781,
      "Ġopened": 1782,
      "ĠEngland": 1783,
      "ĠNo": 1784,
      "be": 1785,
      "ĠCo": 1786,
      "Ġpat": 1787,
      "Ġreached": 1788,
      "Ġsugg": 1789,
      "Ġeast": 1790,
      "ories": 1791,
      "ices": 1792,
      "Ġ2009": 1793,
      "ruction": 1794,
      "Ġwest": 1795,
      "Ġ2008": 1796,
      "ple": 1797,
      "esc": 1798,
      "ival": 1799,
      "Ġ22": 1800,
      "Ġhard": 1801,
      "Ġplayer": 1802,
      "roy": 1803,
      "ald": 1804,
      "omen": 1805,
      "ches": 1806,
      "Ġfoot": 1807,
      "me": 1808,
      "Ġflow": 1809,
      "Ġstart": 1810,
      "port": 1811,
      "ĠChar": 1812,
      "ĠMax": 1813,
      "ĠMich": 1814,
      "ush": 1815,
      "Ġposition": 1816,
      "here": 1817,
      "Ġnight": 1818,
      "Ġcontr": 1819,
      "Ġ2011": 1820,
      "Ġclub": 1821,
      "Ġste": 1822,
      "Ġtry": 1823,
      "Ġra": 1824,
      "cess": 1825,
      "Ġtried": 1826,
      "oice": 1827,
      "ĠEl": 1828,
      "Ġreturned": 1829,
      "Ġproduction": 1830,
      "ĠEnglish": 1831,
      "omb": 1832,
      "Ġlight": 1833,
      "Ġcommun": 1834,
      "Ġorder": 1835,
      "Ġsoon": 1836,
      "Ġrad": 1837,
      "Ġinvol": 1838,
      "Ġlow": 1839,
      "iqu": 1840,
      "ĠPark": 1841,
      "Ġinflu": 1842,
      "ĠDav": 1843,
      "used": 1844,
      "ford": 1845,
      "Ġseen": 1846,
      "Ġ&": 1847,
      "ering": 1848,
      "aff": 1849,
      "Ġins": 1850,
      "ries": 1851,
      "Ġhour": 1852,
      "Ġinside": 1853,
      "ĠCity": 1854,
      "Ġdoes": 1855,
      "Ġrock": 1856,
      "Ġimportant": 1857,
      "Ġsoc": 1858,
      "Ġchildren": 1859,
      "Ġpoint": 1860,
      "Ġknew": 1861,
      "Ġgiven": 1862,
      "Ġadm": 1863,
      "Ġclos": 1864,
      "Ġchang": 1865,
      "ĠAng": 1866,
      "ann": 1867,
      "Ġversion": 1868,
      "Ġcome": 1869,
      "Ġscared": 1870,
      "Ġ2007": 1871,
      "resent": 1872,
      "aul": 1873,
      "ĠCent": 1874,
      "Ġlove": 1875,
      "Ġannoun": 1876,
      "ma": 1877,
      "Ġwritten": 1878,
      "Ġ23": 1879,
      "day": 1880,
      "Ġfull": 1881,
      "ĠRiver": 1882,
      "ention": 1883,
      "Ġaff": 1884,
      "ĠMom": 1885,
      "Ġdon": 1886,
      "Ġfact": 1887,
      "Ġbuilding": 1888,
      "Ġcountry": 1889,
      "Ġtrad": 1890,
      "Ġstat": 1891,
      "ondon": 1892,
      "ampions": 1893,
      "yle": 1894,
      "sequ": 1895,
      "Ġpain": 1896,
      "Ġbox": 1897,
      "iment": 1898,
      "Ġsun": 1899,
      "Ġcomb": 1900,
      "Ġord": 1901,
      "Ġpick": 1902,
      "Ġfollowed": 1903,
      "Ġprof": 1904,
      "alth": 1905,
      "Ġkeep": 1906,
      "Ġcat": 1907,
      "Ġdefe": 1908,
      "iety": 1909,
      "Ġcompany": 1910,
      "ĠLondon": 1911,
      "oud": 1912,
      "ai": 1913,
      "Ġvict": 1914,
      "ĠCount": 1915,
      "Ġ190": 1916,
      "int": 1917,
      "ison": 1918,
      "Ġever": 1919,
      "ille": 1920,
      "Ġpress": 1921,
      "ords": 1922,
      "Ġtotal": 1923,
      "Ġquick": 1924,
      "ĠCanad": 1925,
      "iec": 1926,
      "Ġrefer": 1927,
      "Ġdad": 1928,
      "ably": 1929,
      "Ġacross": 1930,
      "Ġelect": 1931,
      "Ġfail": 1932,
      "lo": 1933,
      "iting": 1934,
      "ges": 1935,
      "Ġable": 1936,
      "Ġfield": 1937,
      "Ġcompet": 1938,
      "Ġusing": 1939,
      "Ġproduced": 1940,
      "ĠCal": 1941,
      "Ġparticular": 1942,
      "ology": 1943,
      "Ġ2012": 1944,
      "ids": 1945,
      "Ġstated": 1946,
      "osp": 1947,
      "Ġfather": 1948,
      "ef": 1949,
      "Ġreported": 1950,
      "craft": 1951,
      "err": 1952,
      "Ġagre": 1953,
      "ae": 1954,
      "rent": 1955,
      "Ġmor": 1956,
      "ief": 1957,
      "Ġpublished": 1958,
      "Ġcommon": 1959,
      "iness": 1960,
      "ests": 1961,
      "Ġsongs": 1962,
      "levision": 1963,
      "Ġread": 1964,
      "rest": 1965,
      "bed": 1966,
      "Ġcross": 1967,
      "Ġlarg": 1968,
      "ipp": 1969,
      "ensive": 1970,
      "ĠAir": 1971,
      "Ġgoing": 1972,
      "ccording": 1973,
      "Ġships": 1974,
      "Ġeas": 1975,
      "Ġrecorded": 1976,
      "Ġbrother": 1977,
      "Ġdirect": 1978,
      "Ġstay": 1979,
      "Ġtimes": 1980,
      "Ġsol": 1981,
      "Ġpopular": 1982,
      "Ġprogram": 1983,
      "isc": 1984,
      "Ġten": 1985,
      "Ġforces": 1986,
      "Ġnort": 1987,
      "ĠSu": 1988,
      "ĠFrom": 1989,
      "Ġinclude": 1990,
      "Ġeight": 1991,
      "att": 1992,
      "ĠUniversity": 1993,
      "ĠGener": 1994,
      "aces": 1995,
      "ither": 1996,
      "Ġsn": 1997,
      "ĠHigh": 1998,
      "ster": 1999,
      "Ġmommy": 2000,
      "ĠSm": 2001,
      "echn": 2002,
      "Ġhold": 2003,
      "aign": 2004,
      "They": 2005,
      "Ġheard": 2006,
      "ington": 2007,
      "con": 2008,
      "Ġsou": 2009,
      "Ġfell": 2010,
      "Ġblack": 2011,
      "tain": 2012,
      "Ġaircraft": 2013,
      "Ġkind": 2014,
      "aur": 2015,
      "itive": 2016,
      "Ġdestroy": 2017,
      "Ġauthor": 2018,
      "af": 2019,
      "Ġleav": 2020,
      "ĠFin": 2021,
      "ument": 2022,
      "Ġsaf": 2023,
      "Ġlim": 2024,
      "Ġmilitary": 2025,
      "Ġbar": 2026,
      "Ġey": 2027,
      "Ġbattle": 2028,
      "ising": 2029,
      "Ġ50": 2030,
      "Ġbehind": 2031,
      "Ġtoys": 2032,
      "oney": 2033,
      "Ġworked": 2034,
      "ĠWith": 2035,
      "Ġcareer": 2036,
      "ploy": 2037,
      "Ġcritic": 2038,
      "Ġ27": 2039,
      "gr": 2040,
      "After": 2041,
      "bit": 2042,
      "ray": 2043,
      "Ġwalk": 2044,
      "ĠThese": 2045,
      "bs": 2046,
      "fic": 2047,
      "Ġ28": 2048,
      "Ġservice": 2049,
      "Ġremained": 2050,
      "ope": 2051,
      "Ġhistory": 2052,
      "alt": 2053,
      "utes": 2054,
      "Ġ2006": 2055,
      "ĠAustralia": 2056,
      "Ġsuff": 2057,
      "ĠSw": 2058,
      "ĠGo": 2059,
      "Ġval": 2060,
      "rought": 2061,
      "ĠRep": 2062,
      "thern": 2063,
      "ms": 2064,
      "denly": 2065,
      "Ġz": 2066,
      "Ġwhite": 2067,
      "Ġidea": 2068,
      "Ġmonths": 2069,
      "ĠAf": 2070,
      "Ġfight": 2071,
      "ĠSy": 2072,
      "ressed": 2073,
      "Ġgrow": 2074,
      "Ġ40": 2075,
      "Ġproduc": 2076,
      "eder": 2077,
      "Ġrepresent": 2078,
      "Ġcirc": 2079,
      "most": 2080,
      "ole": 2081,
      "Ġintrod": 2082,
      "Ġhit": 2083,
      "Ġperformance": 2084,
      "Ġson": 2085,
      "Ġgen": 2086,
      "Ġcut": 2087,
      "ases": 2088,
      "bor": 2089,
      "Ġcoun": 2090,
      "Ġdeveloped": 2091,
      "Ġcharacters": 2092,
      "Ġdevelopment": 2093,
      "Ġwat": 2094,
      "Ġclose": 2095,
      "play": 2096,
      "com": 2097,
      "Ġforce": 2098,
      "Ġ26": 2099,
      "Ġobs": 2100,
      "ĠPol": 2101,
      "Ġpra": 2102,
      "ĠRoy": 2103,
      "Ġtitle": 2104,
      "Ġisland": 2105,
      "ĠEvery": 2106,
      "ĠAlthough": 2107,
      "Ġsuccessful": 2108,
      "ĠArmy": 2109,
      "eal": 2110,
      "ĠAss": 2111,
      "Ġyoung": 2112,
      "Ġdied": 2113,
      "Ġft": 2114,
      "elling": 2115,
      "Ġtour": 2116,
      "ought": 2117,
      "Ġsum": 2118,
      "itted": 2119,
      "Ġothers": 2120,
      "Ġrace": 2121,
      "Ġgive": 2122,
      "Ġsignific": 2123,
      "Ġcreated": 2124,
      "Ġlived": 2125,
      "Ġfall": 2126,
      "ĠEx": 2127,
      "lect": 2128,
      "Ġ189": 2129,
      "Ġnational": 2130,
      "Ġpromot": 2131,
      "ying": 2132,
      "ency": 2133,
      "dom": 2134,
      "Ġcampaign": 2135,
      "Ġmeet": 2136,
      "ucted": 2137,
      "ĠAb": 2138,
      "ampionship": 2139,
      "ming": 2140,
      "ption": 2141,
      "ĠJames": 2142,
      "ĠGeneral": 2143,
      "Ġeffect": 2144,
      "Ġhistor": 2145,
      "Ġfly": 2146,
      "Ġsuper": 2147,
      "Ġfront": 2148,
      "less": 2149,
      "Ġstation": 2150,
      "Ġofficial": 2151,
      "Ġrelations": 2152,
      "ĠBo": 2153,
      "Ġcost": 2154,
      "ration": 2155,
      "hern": 2156,
      "dle": 2157,
      "Ġappeared": 2158,
      "ĠWhile": 2159,
      "ĠEar": 2160,
      "Ġ2013": 2161,
      "ĠState": 2162,
      "ression": 2163,
      "Ġfood": 2164,
      "ĠTw": 2165,
      "ĠSec": 2166,
      "Ġnoted": 2167,
      "Ġtelevision": 2168,
      "Ġareas": 2169,
      "Ġang": 2170,
      "Ġtaken": 2171,
      "ricane": 2172,
      "Ġbad": 2173,
      "Ġcreat": 2174,
      "val": 2175,
      "ĠPres": 2176,
      "Ġcareful": 2177,
      "yn": 2178,
      "Ġannounced": 2179,
      "Ġmix": 2180,
      "Ġmiss": 2181,
      "Ġintern": 2182,
      "Ġbrought": 2183,
      "imately": 2184,
      "ination": 2185,
      "ĠDivision": 2186,
      "to": 2187,
      "Ġquickly": 2188,
      "Ġrain": 2189,
      "ĠSo": 2190,
      "Ġtoy": 2191,
      "Ġearl": 2192,
      "Ġeventually": 2193,
      "ĠAmerica": 2194,
      "dy": 2195,
      "Ġpret": 2196,
      "Ġparty": 2197,
      "Ġinstead": 2198,
      "Ġserved": 2199,
      "Ġclim": 2200,
      "ĠGl": 2201,
      "aper": 2202,
      "ana": 2203,
      "Ġaver": 2204,
      "Ġbegin": 2205,
      "Ġvarious": 2206,
      "Ġbear": 2207,
      "Ġwa": 2208,
      "Ġmother": 2209,
      "ĠJapanese": 2210,
      "ĠLeague": 2211,
      "arden": 2212,
      "Ġheavy": 2213,
      "ael": 2214,
      "Ġdro": 2215,
      "Ġfinished": 2216,
      "mp": 2217,
      "Ġconv": 2218,
      "ĠâĢĻ": 2219,
      "ĠRuss": 2220,
      "thing": 2221,
      "Ġpiec": 2222,
      "Ġdecl": 2223,
      "Ġpolitical": 2224,
      "Ġplayers": 2225,
      "ublic": 2226,
      "Ġfeet": 2227,
      "umb": 2228,
      "Ġcor": 2229,
      "ĠNe": 2230,
      "Ġvol": 2231,
      "ĠRoad": 2232,
      "roud": 2233,
      "iber": 2234,
      "Ġbody": 2235,
      "Ġmean": 2236,
      "Ġround": 2237,
      "field": 2238,
      "ĠStreet": 2239,
      "Ġprim": 2240,
      "orry": 2241,
      "Ġtowards": 2242,
      "Ġseven": 2243,
      "Ġanimals": 2244,
      "ĠMad": 2245,
      "Ġthroughout": 2246,
      "Ġrev": 2247,
      "ality": 2248,
      "oor": 2249,
      "ells": 2250,
      "Ġtropical": 2251,
      "idence": 2252,
      "ama": 2253,
      "Ġperformed": 2254,
      "abor": 2255,
      "Ġwid": 2256,
      "Ġbecom": 2257,
      "Ġaud": 2258,
      "Ġimpro": 2259,
      "Ġkilled": 2260,
      "lished": 2261,
      "ĠMon": 2262,
      "Ġcouldn": 2263,
      "ĠBill": 2264,
      "ĠSte": 2265,
      "Ġprocess": 2266,
      "Ġve": 2267,
      "Ġ29": 2268,
      "Ġwriting": 2269,
      "ĠSim": 2270,
      "reg": 2271,
      "ĠCounty": 2272,
      "Ġsignificant": 2273,
      "Ġnon": 2274,
      "Ġstyle": 2275,
      "epend": 2276,
      "ertain": 2277,
      "Ġcy": 2278,
      "ĠAccording": 2279,
      "Ġreach": 2280,
      "Ġesc": 2281,
      "Ġpoints": 2282,
      "ĠMor": 2283,
      "ĠEast": 2284,
      "Ġkept": 2285,
      "Ġer": 2286,
      "Ġstri": 2287,
      "Ġcoll": 2288,
      "opped": 2289,
      "Ġenc": 2290,
      "Ġadded": 2291,
      "Ġage": 2292,
      "Ġlearned": 2293,
      "rict": 2294,
      "Ġonce": 2295,
      "enced": 2296,
      "Ġfem": 2297,
      "ĠGeorge": 2298,
      "Ġarg": 2299,
      "Ġestablished": 2300,
      "ization": 2301,
      "Ġproud": 2302,
      "Ġruns": 2303,
      "Ġcult": 2304,
      "ĠHen": 2305,
      "empt": 2306,
      "Ġmiles": 2307,
      "Ġbeaut": 2308,
      "iding": 2309,
      "Ġbreak": 2310,
      "Ġtechn": 2311,
      "oring": 2312,
      "Ġident": 2313,
      "urg": 2314,
      "Ġstruct": 2315,
      "Ġfree": 2316,
      "ecut": 2317,
      "Ġcaused": 2318,
      "Ġmm": 2319,
      "ett": 2320,
      "Ġ2005": 2321,
      "Ġbroad": 2322,
      "ĠComp": 2323,
      "Ġdiv": 2324,
      "iers": 2325,
      "But": 2326,
      "Ġproble": 2327,
      "Ġfac": 2328,
      "Ġtro": 2329,
      "aval": 2330,
      "atter": 2331,
      "iron": 2332,
      "ĠIsland": 2333,
      "iny": 2334,
      "ĠRober": 2335,
      "head": 2336,
      "olution": 2337,
      "Ġmot": 2338,
      "Ġwomen": 2339,
      "Ġmodern": 2340,
      "Ġrange": 2341,
      "men": 2342,
      "Ġvill": 2343,
      "ĠAustralian": 2344,
      "ĠSer": 2345,
      "Ġpract": 2346,
      "Ġmember": 2347,
      "etimes": 2348,
      "Ġentire": 2349,
      "oke": 2350,
      "Ġaward": 2351,
      "Ġcoast": 2352,
      "Ġslow": 2353,
      "board": 2354,
      "ius": 2355,
      "Ġactiv": 2356,
      "joy": 2357,
      "ogn": 2358,
      "acy": 2359,
      "Ġgeneral": 2360,
      "asing": 2361,
      "eks": 2362,
      "ĠPhil": 2363,
      "arch": 2364,
      "Ġturned": 2365,
      "Ġking": 2366,
      "Ġfast": 2367,
      "iful": 2368,
      "Ġroute": 2369,
      "Ġfeatures": 2370,
      "anch": 2371,
      "odes": 2372,
      "ĠAnna": 2373,
      "omp": 2374,
      "Ġformed": 2375,
      "reek": 2376,
      "ĠRec": 2377,
      "pper": 2378,
      "ators": 2379,
      "hic": 2380,
      "ficult": 2381,
      "erous": 2382,
      "Ġsorry": 2383,
      "Ġconn": 2384,
      "Ġalmost": 2385,
      "ĠAfric": 2386,
      "aps": 2387,
      "ivil": 2388,
      "Ġmanag": 2389,
      "work": 2390,
      "Ġvot": 2391,
      "Ġcompleted": 2392,
      "Ġarch": 2393,
      "Ġlocated": 2394,
      "Ġdifficult": 2395,
      "ĠSqu": 2396,
      "emy": 2397,
      "ĠSch": 2398,
      "Ġstage": 2399,
      "Ġ!": 2400,
      "Ġworks": 2401,
      "cast": 2402,
      "Ġcrew": 2403,
      "ceed": 2404,
      "ĠTo": 2405,
      "ivid": 2406,
      "Ġlive": 2407,
      "Ġwall": 2408,
      "Ġenough": 2409,
      "Ġshare": 2410,
      "Ġjump": 2411,
      "rison": 2412,
      "ending": 2413,
      "Ġ2014": 2414,
      "Ġcop": 2415,
      "ĠDavid": 2416,
      "Ġbase": 2417,
      "Ġaction": 2418,
      "Wh": 2419,
      "Ġsurpr": 2420,
      "cil": 2421,
      "ample": 2422,
      "ele": 2423,
      "pted": 2424,
      "Ġthink": 2425,
      "Ġhelped": 2426,
      "ĠRich": 2427,
      "Ġproject": 2428,
      "Ġguns": 2429,
      "Ġface": 2430,
      "ĠPer": 2431,
      "Ġinterest": 2432,
      "Ġmust": 2433,
      "Ġmater": 2434,
      "Ġrather": 2435,
      "When": 2436,
      "Ġrespect": 2437,
      "itch": 2438,
      "Ġinsp": 2439,
      "ĠQu": 2440,
      "read": 2441,
      "lin": 2442,
      "ĠReg": 2443,
      "ee": 2444,
      "Ġenjoy": 2445,
      "sc": 2446,
      "aid": 2447,
      "conom": 2448,
      "uct": 2449,
      "itar": 2450,
      "Ġsepar": 2451,
      "medi": 2452,
      "Ġpopulation": 2453,
      "ĠThat": 2454,
      "Ġworking": 2455,
      "Ġsurv": 2456,
      "ĠDr": 2457,
      "Ġvoice": 2458,
      "Ġsil": 2459,
      "Ġdraw": 2460,
      "uddenly": 2461,
      "ĠDo": 2462,
      "Ġoccur": 2463,
      "ament": 2464,
      "uff": 2465,
      "ĠRoyal": 2466,
      "ĠHouse": 2467,
      "As": 2468,
      "Ġweeks": 2469,
      "Ġeat": 2470,
      "agon": 2471,
      "Ġnovel": 2472,
      "Ġfif": 2473,
      "Ġ188": 2474,
      "stand": 2475,
      "ĠPe": 2476,
      "Ġren": 2477,
      "cent": 2478,
      "Ġcomment": 2479,
      "ĠItal": 2480,
      "Ġ31": 2481,
      "Ġlot": 2482,
      "ĠPart": 2483,
      "igned": 2484,
      "Ġtreat": 2485,
      "Ġinj": 2486,
      "ades": 2487,
      "ows": 2488,
      "Ġloss": 2489,
      "Ġallowed": 2490,
      "ze": 2491,
      "Ġlack": 2492,
      "Ġour": 2493,
      "Ġpred": 2494,
      "Ġattemp": 2495,
      "Ġbomb": 2496,
      "ask": 2497,
      "ĠIndian": 2498,
      "Ġsubsequ": 2499,
      "Ġreve": 2500,
      "Ġarrived": 2501,
      "Ġfish": 2502,
      "Ġsite": 2503,
      "Ġwood": 2504,
      "Ġleading": 2505,
      "off": 2506,
      "ĠBlack": 2507,
      "Ġpeak": 2508,
      "Ġsour": 2509,
      "Ġhon": 2510,
      "ĠMary": 2511,
      "Ġcase": 2512,
      "urb": 2513,
      "uk": 2514,
      "Ġplaced": 2515,
      "Ġoriginally": 2516,
      "Ġhuman": 2517,
      "iles": 2518,
      "Ġrelationship": 2519,
      "Ġdamage": 2520,
      "Ġhor": 2521,
      "Ġfavor": 2522,
      "Ġscored": 2523,
      "Ġattempt": 2524,
      "istic": 2525,
      "Ġsat": 2526,
      "Ġhost": 2527,
      "Ġmer": 2528,
      "wood": 2529,
      "Ġprovided": 2530,
      "Ġinvest": 2531,
      "Ġappoin": 2532,
      "ĠFrance": 2533,
      "Ġforest": 2534,
      "rown": 2535,
      "Ġfourth": 2536,
      "ĠMed": 2537,
      "Ġeither": 2538,
      "ĠLuc": 2539,
      "Ġfig": 2540,
      "Ġassoci": 2541,
      "ĠMy": 2542,
      "ata": 2543,
      "Ġhours": 2544,
      "Ġreb": 2545,
      "uel": 2546,
      "Ġavail": 2547,
      "Ġdone": 2548,
      "elled": 2549,
      "bert": 2550,
      "Ġpast": 2551,
      "ĠDan": 2552,
      "Ġconstruction": 2553,
      "Ġjoined": 2554,
      "Ġmight": 2555,
      "Ġnice": 2556,
      "Ġscene": 2557,
      "ĠAle": 2558,
      "Ġwal": 2559,
      "Ġparen": 2560,
      "stit": 2561,
      "Tom": 2562,
      "Ġoffice": 2563,
      "Ġreally": 2564,
      "Ġ186": 2565,
      "ica": 2566,
      "Ġinform": 2567,
      "Ġpur": 2568,
      "ĠNor": 2569,
      "Ġter": 2570,
      "Ã¡": 2571,
      "Ġwatch": 2572,
      "Ġpot": 2573,
      "Ġdoll": 2574,
      "Ġrunning": 2575,
      "ills": 2576,
      "ĠSchool": 2577,
      "angu": 2578,
      "Ġindivid": 2579,
      "ĠBob": 2580,
      "Ġshowed": 2581,
      "Ġbeautiful": 2582,
      "Ġengine": 2583,
      "Ġtaking": 2584,
      "orpor": 2585,
      "Ġleast": 2586,
      "Ġlaun": 2587,
      "ky": 2588,
      "Ġhop": 2589,
      "overed": 2590,
      "iced": 2591,
      "azine": 2592,
      "Ġmi": 2593,
      "Ġhom": 2594,
      "Ġseem": 2595,
      "Ġgarden": 2596,
      "Ġwife": 2597,
      "aughter": 2598,
      "Ġtroops": 2599,
      "Ġrecogn": 2600,
      "ĠMichael": 2601,
      "empor": 2602,
      "ule": 2603,
      "Ġregion": 2604,
      "ĠWash": 2605,
      "ays": 2606,
      "Ġaverage": 2607,
      "iol": 2608,
      "ĠSan": 2609,
      "omm": 2610,
      "Ġtradition": 2611,
      "Ġbow": 2612,
      "Ġdeep": 2613,
      "Ġcritics": 2614,
      "Ġhugged": 2615,
      "Ġdev": 2616,
      "Ġ2004": 2617,
      "Ġmaterial": 2618,
      "Ġfeatured": 2619,
      "Ġbusiness": 2620,
      "ude": 2621,
      "ĠHenry": 2622,
      "Ġresul": 2623,
      "Ġindust": 2624,
      "Ġmult": 2625,
      "espite": 2626,
      "Ġfoc": 2627,
      "ĠHam": 2628,
      "ĠRed": 2629,
      "Ġdark": 2630,
      "Ġborn": 2631,
      "It": 2632,
      "Ġsky": 2633,
      "Ġ500": 2634,
      "Ġrul": 2635,
      "Ġrail": 2636,
      "ĠPort": 2637,
      "Ġsaying": 2638,
      "Ġarmy": 2639,
      "Ġminutes": 2640,
      "Ġbelieved": 2641,
      "Ġmass": 2642,
      "ĠAct": 2643,
      "Ġsometimes": 2644,
      "ino": 2645,
      "Ġexample": 2646,
      "arm": 2647,
      "ĠPaul": 2648,
      "Ġeconom": 2649,
      "Ġneg": 2650,
      "Ġestim": 2651,
      "ises": 2652,
      "chie": 2653,
      "Ġsex": 2654,
      "Ġgenerally": 2655,
      "Ġprofess": 2656,
      "Ġproper": 2657,
      "rog": 2658,
      "of": 2659,
      "ĠSome": 2660,
      "antic": 2661,
      "Ġstore": 2662,
      "Ġsurf": 2663,
      "Ġtravel": 2664,
      "ential": 2665,
      "Ġdou": 2666,
      "Mom": 2667,
      "ĠStar": 2668,
      "odd": 2669,
      "Ġtest": 2670,
      "ĠIntern": 2671,
      "Ġ187": 2672,
      "ĠBest": 2673,
      "ĠQue": 2674,
      "Ġregular": 2675,
      "ĠCour": 2676,
      "ength": 2677,
      "ollowing": 2678,
      "ĠVir": 2679,
      "olly": 2680,
      "adron": 2681,
      "Ġpassed": 2682,
      "ĠPresident": 2683,
      "Ġvictory": 2684,
      "ĠWashington": 2685,
      "Ġagreed": 2686,
      "ĠThen": 2687,
      "Ġgrand": 2688,
      "Ġparticip": 2689,
      "Ġmeas": 2690,
      "Ġdesigned": 2691,
      "Ġmoney": 2692,
      "iff": 2693,
      "rave": 2694,
      "go": 2695,
      "Ġpict": 2696,
      "Ġblue": 2697,
      "Ġreplaced": 2698,
      "enes": 2699,
      "Ġjour": 2700,
      "lic": 2701,
      "rey": 2702,
      "Ġap": 2703,
      "str": 2704,
      "Ġmph": 2705,
      "Ġshot": 2706,
      "Ġadvent": 2707,
      "Ġnomin": 2708,
      "ĠBel": 2709,
      "earch": 2710,
      "artment": 2711,
      "Ġinvolved": 2712,
      "Ġspent": 2713,
      "Ġquest": 2714,
      "ĠRobert": 2715,
      "Ġchange": 2716,
      "Ġcurrent": 2717,
      "Ġfund": 2718,
      "Ġavailable": 2719,
      "Ġscore": 2720,
      "Ġearlier": 2721,
      "Ġthreat": 2722,
      "Ġemploy": 2723,
      "ps": 2724,
      "iction": 2725,
      "ĠAg": 2726,
      "Ġevents": 2727,
      "Ġsafe": 2728,
      "Ġ2000": 2729,
      "ĠAngel": 2730,
      "fall": 2731,
      "Ġbed": 2732,
      "aded": 2733,
      "Ġhands": 2734,
      "ville": 2735,
      "Ġ2015": 2736,
      "Ġsea": 2737,
      "Ġ35": 2738,
      "Ġended": 2739,
      "Ġopening": 2740,
      "ĠCap": 2741,
      "Ġnec": 2742,
      "ĠColle": 2743,
      "ological": 2744,
      "Ġdesp": 2745,
      "ript": 2746,
      "Ġpossible": 2747,
      "west": 2748,
      "ĠDon": 2749,
      "ears": 2750,
      "Ġpresident": 2751,
      "xic": 2752,
      "Ġvoc": 2753,
      "Ġcourt": 2754,
      "Ġcry": 2755,
      "Ġhighest": 2756,
      "co": 2757,
      "ken": 2758,
      "Ġneeded": 2759,
      "itte": 2760,
      "ĠBattle": 2761,
      "Ġgoal": 2762,
      "imin": 2763,
      "asion": 2764,
      "illed": 2765,
      "'m": 2766,
      "He": 2767,
      "ander": 2768,
      "ĠThom": 2769,
      "Ġquar": 2770,
      "ĠHall": 2771,
      "Ġchart": 2772,
      "Ġlength": 2773,
      "Ġinitially": 2774,
      "itc": 2775,
      "Ġsouthern": 2776,
      "ĠLa": 2777,
      "Ġdirector": 2778,
      "Ġparticularly": 2779,
      "sel": 2780,
      "Ġlargest": 2781,
      "Ġclear": 2782,
      "ift": 2783,
      "Ġflew": 2784,
      "oph": 2785,
      "Ġtow": 2786,
      "Ġpraised": 2787,
      "Ġforced": 2788,
      "Ġbit": 2789,
      "Ġrespons": 2790,
      "Ġcommer": 2791,
      "ago": 2792,
      "ĠGrand": 2793,
      "Ġill": 2794,
      "ĠSar": 2795,
      "icy": 2796,
      "Ġcontrib": 2797,
      "ĠEuropean": 2798,
      "ĠCr": 2799,
      "cle": 2800,
      "Ġpercent": 2801,
      "inist": 2802,
      "ĠGreat": 2803,
      "BC": 2804,
      "Ġriver": 2805,
      "king": 2806,
      "Ġlooking": 2807,
      "Ġexist": 2808,
      "Ġindepend": 2809,
      "Ġcal": 2810,
      "Ġpers": 2811,
      "Ġclean": 2812,
      "ecutive": 2813,
      "Ġspeed": 2814,
      "Ġtraining": 2815,
      "Ġcou": 2816,
      "osition": 2817,
      "ĠRoman": 2818,
      "Ġkey": 2819,
      "ique": 2820,
      "Ġhighway": 2821,
      "Ġ2003": 2822,
      "antry": 2823,
      "Ġindic": 2824,
      "Ġlangu": 2825,
      "Ġsele": 2826,
      "Ġimmedi": 2827,
      "ĠJe": 2828,
      "Ġlots": 2829,
      "ĠÃ": 2830,
      "Ġsequ": 2831,
      "Ġincreased": 2832,
      "rang": 2833,
      "Ġhurricane": 2834,
      "Ġstudio": 2835,
      "An": 2836,
      "Ġpay": 2837,
      "ĠMal": 2838,
      "Ġhy": 2839,
      "ĠMart": 2840,
      "Ġtouch": 2841,
      "Ġchurch": 2842,
      "Ġhous": 2843,
      "Ġpen": 2844,
      "ellow": 2845,
      "Ġsocial": 2846,
      "hib": 2847,
      "ĠMo": 2848,
      "Ġprinc": 2849,
      "uture": 2850,
      "ĠLou": 2851,
      "Ġordered": 2852,
      "Ġvisit": 2853,
      "ĠPlay": 2854,
      "ĠCup": 2855,
      "Ġesp": 2856,
      "Ġnorthern": 2857,
      "heast": 2858,
      "ĠBer": 2859,
      "ification": 2860,
      "ĠPat": 2861,
      "Ġthanked": 2862,
      "ĠAtl": 2863,
      "Ġregard": 2864,
      "Ġabove": 2865,
      "ĠÂ°": 2866,
      "ĠRepublic": 2867,
      "rian": 2868,
      "ĠNavy": 2869,
      "ateg": 2870,
      "Ġpriv": 2871,
      "ki": 2872,
      "anks": 2873,
      "ĠMag": 2874,
      "Ġly": 2875,
      "ĠScott": 2876,
      "irth": 2877,
      "Ġdoor": 2878,
      "emor": 2879,
      "Ġnet": 2880,
      "Ġcentral": 2881,
      "Ġsym": 2882,
      "ĠVal": 2883,
      "icket": 2884,
      "Ġgrad": 2885,
      "ume": 2886,
      "Ġrelig": 2887,
      "Ġachie": 2888,
      "Ġliving": 2889,
      "ĠDa": 2890,
      "ĠKingdom": 2891,
      "ĠMac": 2892,
      "Ġappearance": 2893,
      "Ġunits": 2894,
      "Ġphys": 2895,
      "At": 2896,
      "ready": 2897,
      "unt": 2898,
      "Ġhot": 2899,
      "ĠGame": 2900,
      "aled": 2901,
      "atural": 2902,
      "Ġpoor": 2903,
      "ĠBrown": 2904,
      "Ġple": 2905,
      "Ġcand": 2906,
      "nes": 2907,
      "Ġfeeling": 2908,
      "Ġgold": 2909,
      "ĠWil": 2910,
      "het": 2911,
      "ios": 2912,
      "Ġloud": 2913,
      "Ġmess": 2914,
      "nal": 2915,
      "Ġdisp": 2916,
      "Ġeyes": 2917,
      "Ġwinds": 2918,
      "amb": 2919,
      "Ġfinally": 2920,
      "Ġleave": 2921,
      "ocr": 2922,
      "iation": 2923,
      "Ġ-": 2924,
      "aker": 2925,
      "ship": 2926,
      "Ġitself": 2927,
      "unk": 2928,
      "ula": 2929,
      "ĠSmith": 2930,
      "reng": 2931,
      "ĠOther": 2932,
      "Ġhigher": 2933,
      "ĠCharles": 2934,
      "airs": 2935,
      "Ġbridge": 2936,
      "Ġsigned": 2937,
      "amer": 2938,
      "ĠAlex": 2939,
      "Ġlaug": 2940,
      "Ġlaughed": 2941,
      "Ġstop": 2942,
      "Ġlonger": 2943,
      "ĠPal": 2944,
      "ĠCanada": 2945,
      "arily": 2946,
      "ĠChurch": 2947,
      "iforn": 2948,
      "yal": 2949,
      "ership": 2950,
      "ffic": 2951,
      "han": 2952,
      "Ġinn": 2953,
      "ĠBay": 2954,
      "ĠThomas": 2955,
      "ĠMil": 2956,
      "Ġeduc": 2957,
      "Ġpositive": 2958,
      "Ġcommerc": 2959,
      "ĠDep": 2960,
      "ĠFirst": 2961,
      "ĠPeter": 2962,
      "anced": 2963,
      "ĠMid": 2964,
      "ecially": 2965,
      "Ġstopped": 2966,
      "Ġmakes": 2967,
      "Ġbill": 2968,
      "ston": 2969,
      "ference": 2970,
      "rem": 2971,
      "Ġalready": 2972,
      "lus": 2973,
      "ground": 2974,
      "Ġaccording": 2975,
      "ilities": 2976,
      "ittee": 2977,
      "ĠMia": 2978,
      "ĠMcC": 2979,
      "ĠVirgin": 2980,
      "Ġparts": 2981,
      "ĠSen": 2982,
      "Ġfailed": 2983,
      "Ġnine": 2984,
      "Ġcourse": 2985,
      "Ġphot": 2986,
      "tr": 2987,
      "Ġcarried": 2988,
      "ĠRock": 2989,
      "action": 2990,
      "Ġscreen": 2991,
      "ĠWhite": 2992,
      "ocks": 2993,
      "Ġfootball": 2994,
      "ĠUnion": 2995,
      "Ġpreviously": 2996,
      "apt": 2997,
      "uation": 2998,
      "Ġespecially": 2999,
      "Ġfilms": 3000,
      "ĠChampionship": 3001,
      "osing": 3002,
      "Ġbooks": 3003,
      "more": 3004,
      "aught": 3005,
      "Ġdeterm": 3006,
      "ĠCaliforn": 3007,
      "itz": 3008,
      "Ġparents": 3009,
      "Ġ2001": 3010,
      "leg": 3011,
      "Ġlower": 3012,
      "Ġbeg": 3013,
      "Ġstreng": 3014,
      "Ġbring": 3015,
      "Ġstates": 3016,
      "Ġprob": 3017,
      "Ġprevent": 3018,
      "Ġdaughter": 3019,
      "Ġhear": 3020,
      "Ġjob": 3021,
      "Ġwide": 3022,
      "rel": 3023,
      "Ġver": 3024,
      "Ġviol": 3025,
      "Ġrequired": 3026,
      "Ġdespite": 3027,
      "for": 3028,
      "ĠIr": 3029,
      "ountain": 3030,
      "Ġnar": 3031,
      "Ġfort": 3032,
      "ĠMet": 3033,
      "Ġstars": 3034,
      "Ġelements": 3035,
      "Ġbirds": 3036,
      "Ġabs": 3037,
      "Ġbeginning": 3038,
      "ĠTwo": 3039,
      "iant": 3040,
      "erved": 3041,
      "Ġinterview": 3042,
      "Ġdirected": 3043,
      "ĠCalifornia": 3044,
      "weet": 3045,
      "ĠCourt": 3046,
      "Ġ60": 3047,
      "Ġhere": 3048,
      "atin": 3049,
      "Ġcoming": 3050,
      "ĠSing": 3051,
      "Åĵ": 3052,
      "Yes": 3053,
      "ĠCong": 3054,
      "ĠMusic": 3055,
      "Ġreviews": 3056,
      "Ġlines": 3057,
      "Ġassist": 3058,
      "Ġfuture": 3059,
      "ĠÂ£": 3060,
      "ida": 3061,
      "Ġrecording": 3062,
      "ĠMark": 3063,
      "Ġ2002": 3064,
      "Ġself": 3065,
      "Ġshows": 3066,
      "Ġwalked": 3067,
      "itor": 3068,
      "Ġboat": 3069,
      "Ġpretty": 3070,
      "ĠRichard": 3071,
      "Ġwatched": 3072,
      "Ġwhose": 3073,
      "Ġlab": 3074,
      "ĠJim": 3075,
      "zz": 3076,
      "Ġaccess": 3077,
      "Ġdebut": 3078,
      "Ġpicked": 3079,
      "Ġshoot": 3080,
      "Ġlay": 3081,
      "Ġexplore": 3082,
      "Ġpolice": 3083,
      "Ġ45": 3084,
      "Ġclaimed": 3085,
      "Ġgroups": 3086,
      "ĠDespite": 3087,
      "jects": 3088,
      "Ġsection": 3089,
      "ĠAssoci": 3090,
      "usp": 3091,
      "Ġintroduced": 3092,
      "Ġsuggested": 3093,
      "irt": 3094,
      "ibility": 3095,
      "Ġtem": 3096,
      "Ġstudy": 3097,
      "ĠCompany": 3098,
      "ĠGermany": 3099,
      "Ġtransfer": 3100,
      "Ġradio": 3101,
      "ĠChristian": 3102,
      "mar": 3103,
      "onna": 3104,
      "omet": 3105,
      "ĠVict": 3106,
      "acted": 3107,
      "ĠIndia": 3108,
      "ĠGod": 3109,
      "illy": 3110,
      "hers": 3111,
      "rief": 3112,
      "Ġcred": 3113,
      "Ġwoman": 3114,
      "ĠJos": 3115,
      "ĠTimes": 3116,
      "isl": 3117,
      "uction": 3118,
      "Ġcenter": 3119,
      "Ġcontract": 3120,
      "Ġspot": 3121,
      "Ġmarket": 3122,
      "Ġwhom": 3123,
      "anded": 3124,
      "bour": 3125,
      "berg": 3126,
      "kn": 3127,
      "ĠSov": 3128,
      "anish": 3129,
      "Ġmorning": 3130,
      "talion": 3131,
      "asons": 3132,
      "ergy": 3133,
      "van": 3134,
      "Ġ1990": 3135,
      "hester": 3136,
      "ability": 3137,
      "Ġprem": 3138,
      "Ġevidence": 3139,
      "een": 3140,
      "Ġpil": 3141,
      "Ġdeal": 3142,
      "room": 3143,
      "ands": 3144,
      "Ġdecision": 3145,
      "Ġangry": 3146,
      "Ġusually": 3147,
      "Ġ185": 3148,
      "hem": 3149,
      "Ġleague": 3150,
      "ĠGovern": 3151,
      "Ġmagazine": 3152,
      "ĠSoviet": 3153,
      "ĠNY": 3154,
      "aint": 3155,
      "ĠRes": 3156,
      "Ġwear": 3157,
      "ĠInternational": 3158,
      "Ġinternational": 3159,
      "Ġflood": 3160,
      "Ġcomplete": 3161,
      "ĠWestern": 3162,
      "ĠMr": 3163,
      "Ġbur": 3164,
      "Ġwestern": 3165,
      "Ġremain": 3166,
      "ĠMexic": 3167,
      "Ġbi": 3168,
      "ĠUK": 3169,
      "Ġoccup": 3170,
      "Ġremember": 3171,
      "Ġhurt": 3172,
      "Ġadditional": 3173,
      "Ġgreen": 3174,
      "ĠHill": 3175,
      "Ġentered": 3176,
      "Ġleaving": 3177,
      "oes": 3178,
      "Ġspecific": 3179,
      "ĠHot": 3180,
      "Ġfrequ": 3181,
      "ĠRoute": 3182,
      "asc": 3183,
      "ĠCro": 3184,
      "Ġlearn": 3185,
      "Ġmusical": 3186,
      "Ġcarry": 3187,
      "Ġcycl": 3188,
      "Ġlisten": 3189,
      "ĠAward": 3190,
      "Ġsurround": 3191,
      "Ġcivil": 3192,
      "Ġice": 3193,
      "Ġsummer": 3194,
      "cy": 3195,
      "leep": 3196,
      "Ġhealth": 3197,
      "Ġsister": 3198,
      "ipped": 3199,
      "Ġsize": 3200,
      "ĠKn": 3201,
      "ĠAc": 3202,
      "fect": 3203,
      "tles": 3204,
      "ĠGold": 3205,
      "Ġproduct": 3206,
      "oo": 3207,
      "ĠCollege": 3208,
      "ully": 3209,
      "Ġfemale": 3210,
      "Ġsurface": 3211,
      "Ġdiscuss": 3212,
      "sy": 3213,
      "Ġbecoming": 3214,
      "ĠMer": 3215,
      "Ġsand": 3216,
      "ĠJust": 3217,
      "Ġexcept": 3218,
      "ĠFrank": 3219,
      "rated": 3220,
      "Ġclosed": 3221,
      "atory": 3222,
      "Ġenv": 3223,
      "oid": 3224,
      "eum": 3225,
      "ha": 3226,
      "Ġremo": 3227,
      "Ġremaining": 3228,
      "Ġlarger": 3229,
      "Ġestimated": 3230,
      "back": 3231,
      "Ġissue": 3232,
      "St": 3233,
      "liam": 3234,
      "Ġ?": 3235,
      "Ġwalking": 3236,
      "Ġeveryone": 3237,
      "igan": 3238,
      "Ġforward": 3239,
      "Ġmov": 3240,
      "Ġspl": 3241,
      "Ġcommunity": 3242,
      "Ġtrees": 3243,
      "Ġcastle": 3244,
      "itt": 3245,
      "Ġinvestig": 3246,
      "Ġfloor": 3247,
      "Ġdefeated": 3248,
      "iser": 3249,
      "Ġweak": 3250,
      "Ġeastern": 3251,
      "Ġmach": 3252,
      "Ġdoc": 3253,
      "ĠBritain": 3254,
      "Ġ32": 3255,
      "Ġstaff": 3256,
      "Ġelection": 3257,
      "erve": 3258,
      "mon": 3259,
      "Ġdoing": 3260,
      "Ġbrave": 3261,
      "ites": 3262,
      "Ġdestroyed": 3263,
      "Ġtakes": 3264,
      "ĠRob": 3265,
      "Ġdisapp": 3266,
      "Ġemer": 3267,
      "Ġstudents": 3268,
      "ĠCoun": 3269,
      "selves": 3270,
      "Ġtar": 3271,
      "ĠForce": 3272,
      "ession": 3273,
      "Ġcreate": 3274,
      "liament": 3275,
      "Ġcomplet": 3276,
      "ĠMill": 3277,
      "Ġwav": 3278,
      "Ġlatter": 3279,
      "Ġ1970": 3280,
      "Ġliter": 3281,
      "ĠSl": 3282,
      "kay": 3283,
      "Ġapprox": 3284,
      "Ġminor": 3285,
      "Ġprovide": 3286,
      "ĠIf": 3287,
      "acing": 3288,
      "inent": 3289,
      "ĠÃ¢": 3290,
      "Ġcertain": 3291,
      "Ġnoise": 3292,
      "Ġcolor": 3293,
      "ĠKe": 3294,
      "Ġtrain": 3295,
      "Ġjud": 3296,
      "Ġtax": 3297,
      "Ġteams": 3298,
      "Ġpressure": 3299,
      "nel": 3300,
      "Ġconsider": 3301,
      "Ġcommercial": 3302,
      "Ġbrief": 3303,
      "Ġwinning": 3304,
      "Ġsoft": 3305,
      "ena": 3306,
      "Ġprison": 3307,
      "Ġ1980": 3308,
      "Ġcele": 3309,
      "Ġcann": 3310,
      "Ġthemselves": 3311,
      "Ġchanged": 3312,
      "ishing": 3313,
      "aries": 3314,
      "Ġlyric": 3315,
      "ĠArt": 3316,
      "ulf": 3317,
      "ex": 3318,
      "ĠPac": 3319,
      "Ġacqu": 3320,
      "Ġvillage": 3321,
      "ires": 3322,
      "ulated": 3323,
      "ĠStud": 3324,
      "ospital": 3325,
      "ĠChic": 3326,
      "Ġsecret": 3327,
      "Ġwond": 3328,
      "alled": 3329,
      "Ġprior": 3330,
      "zy": 3331,
      "Ġappointed": 3332,
      "hing": 3333,
      "inct": 3334,
      "Tim": 3335,
      "pire": 3336,
      "Ġscenes": 3337,
      "onse": 3338,
      "Ġcommission": 3339,
      "Ġlimited": 3340,
      "Ġfleet": 3341,
      "ĠFranc": 3342,
      "Ġreport": 3343,
      "emporary": 3344,
      "change": 3345,
      "Ġinstr": 3346,
      "cean": 3347,
      "Ġpersonal": 3348,
      "ĠVictor": 3349,
      "Ġepisodes": 3350,
      "Ġ80": 3351,
      "You": 3352,
      "ĠDay": 3353,
      "Ġdi": 3354,
      "Ġpaper": 3355,
      "Ġspace": 3356,
      "Ġwarm": 3357,
      "ĠDu": 3358,
      "aby": 3359,
      "ĠBur": 3360,
      "Ġboard": 3361,
      "ederal": 3362,
      "orps": 3363,
      "Ġbirth": 3364,
      "bers": 3365,
      "Ġguitar": 3366,
      "Ġsusp": 3367,
      "Ġthing": 3368,
      "Ġterrit": 3369,
      "Ġdead": 3370,
      "Ġattr": 3371,
      "ummy": 3372,
      "Ġchanges": 3373,
      "Ġden": 3374,
      "Ġoverall": 3375,
      "Ġ36": 3376,
      "Ġwhole": 3377,
      "NA": 3378,
      "Ġneigh": 3379,
      "Ġdate": 3380,
      "ĠLos": 3381,
      "sen": 3382,
      "ĠDem": 3383,
      "Ġcook": 3384,
      "Ġdress": 3385,
      "Ġnearly": 3386,
      "uing": 3387,
      "can": 3388,
      "Ġkil": 3389,
      "Ġherself": 3390,
      "Ġintended": 3391,
      "Ġmixed": 3392,
      "Ġanti": 3393,
      "Ġproposed": 3394,
      "ging": 3395,
      "ĠSoc": 3396,
      "Ġanal": 3397,
      "igade": 3398,
      "Ġtrib": 3399,
      "Ġtalk": 3400,
      "ĠFle": 3401,
      "Ġdiss": 3402,
      "enth": 3403,
      "Ġdisplay": 3404,
      "Ġsupported": 3405,
      "rd": 3406,
      "Ġpurch": 3407,
      "Ġstructure": 3408,
      "oe": 3409,
      "iral": 3410,
      "Ġdance": 3411,
      "Ġder": 3412,
      "Ġrights": 3413,
      "Ġeffects": 3414,
      "Ġestablish": 3415,
      "Ġresponse": 3416,
      "Ġexperience": 3417,
      "inese": 3418,
      "ĠVirginia": 3419,
      "ĠSpanish": 3420,
      "Ġ75": 3421,
      "pping": 3422,
      "idents": 3423,
      "Ġdivision": 3424,
      "Ġrap": 3425,
      "Ġfix": 3426,
      "Ġtype": 3427,
      "Ġinfluence": 3428,
      "Ġlanguage": 3429,
      "Ġflag": 3430,
      "Ġwriter": 3431,
      "Ġ300": 3432,
      "Ġmarried": 3433,
      "ension": 3434,
      "asy": 3435,
      "ightly": 3436,
      "Ġnearby": 3437,
      "Ġoffered": 3438,
      "Ġplanned": 3439,
      "II": 3440,
      "Ġarrang": 3441,
      "ĠPri": 3442,
      "Ġintens": 3443,
      "ĠJackson": 3444,
      "Ġmovement": 3445,
      "Ġwhy": 3446,
      "ider": 3447,
      "ĠTex": 3448,
      "ĠSara": 3449,
      "ining": 3450,
      "Ġfair": 3451,
      "Ġsure": 3452,
      "atively": 3453,
      "ĠLouis": 3454,
      "ĠBra": 3455,
      "Ġincreasing": 3456,
      "Ġexam": 3457,
      "ĠJoe": 3458,
      "ga": 3459,
      "ĠFlor": 3460,
      "ography": 3461,
      "Ġcloser": 3462,
      "Ġcontro": 3463,
      "ĠSuper": 3464,
      "sw": 3465,
      "Ġmultip": 3466,
      "Ġnorm": 3467,
      "Ġresearch": 3468,
      "Ġunderstand": 3469,
      "Ġemb": 3470,
      "tt": 3471,
      "Ġ1960": 3472,
      "teen": 3473,
      "Ġcompared": 3474,
      "Ġ1999": 3475,
      "enty": 3476,
      "Ġfans": 3477,
      "ĠParty": 3478,
      "lymp": 3479,
      "Ġcaptured": 3480,
      "imum": 3481,
      "atives": 3482,
      "ÃŃ": 3483,
      "ĠChinese": 3484,
      "Ġyard": 3485,
      "Ġyellow": 3486,
      "Ġcru": 3487,
      "Ġwords": 3488,
      "ĠAssociation": 3489,
      "uth": 3490,
      "Ġsoldiers": 3491,
      "ĠOlymp": 3492,
      "ibr": 3493,
      "kin": 3494,
      "omer": 3495,
      "Ġawarded": 3496,
      "Ġdetail": 3497,
      "Ġdig": 3498,
      "Ġconclud": 3499,
      "Ġweap": 3500,
      "que": 3501,
      "Ġfifth": 3502,
      "Ġdiscovered": 3503,
      "Ġtemper": 3504,
      "ien": 3505,
      "Ġcelebr": 3506,
      "AA": 3507,
      "Ġimmediately": 3508,
      "Ġfeature": 3509,
      "ĠChicago": 3510,
      "Ġchall": 3511,
      "Ġtail": 3512,
      "Ġplant": 3513,
      "ĠCast": 3514,
      "Ġdropped": 3515,
      "tained": 3516,
      "Ġapproximately": 3517,
      "Ġmoving": 3518,
      "Ġens": 3519,
      "ushed": 3520,
      "ĠLucy": 3521,
      "ĠGreen": 3522,
      "burg": 3523,
      "tered": 3524,
      "Ġleaves": 3525,
      "ĠCouncil": 3526,
      "Ġtracks": 3527,
      "iring": 3528,
      "Ġthus": 3529,
      "Ġ184": 3530,
      "Ġheav": 3531,
      "Ġstick": 3532,
      "ĠIm": 3533,
      "Ġwithd": 3534,
      "Ġbuildings": 3535,
      "Ġtrying": 3536,
      "Al": 3537,
      "Ġmostly": 3538,
      "ĠBillboard": 3539,
      "ties": 3540,
      "Ġult": 3541,
      "Ġgar": 3542,
      "ĠHow": 3543,
      "Ġprobably": 3544,
      "gar": 3545,
      "Ġbroke": 3546,
      "Ġtur": 3547,
      "ĠJane": 3548,
      "Ġgrab": 3549,
      "aches": 3550,
      "Ġalone": 3551,
      "ĠAdm": 3552,
      "Ġshiny": 3553,
      "Ġrelated": 3554,
      "Let": 3555,
      "Ġcool": 3556,
      "iest": 3557,
      "ĠSou": 3558,
      "No": 3559,
      "ĠClub": 3560,
      "Ġheart": 3561,
      "Ġremains": 3562,
      "Ġwhether": 3563,
      "Ġimm": 3564,
      "isions": 3565,
      "ronic": 3566,
      "yr": 3567,
      "Ġfighting": 3568,
      "Ġcopies": 3569,
      "uit": 3570,
      "ĠPet": 3571,
      "olic": 3572,
      "Ã¶": 3573,
      "Ġmedia": 3574,
      "hood": 3575,
      "Ġnatural": 3576,
      "Ġextended": 3577,
      "Ġcold": 3578,
      "ĠTV": 3579,
      "Ġleader": 3580,
      "Ġsuffered": 3581,
      "Ġmeant": 3582,
      "ĠEdward": 3583,
      "ĠKore": 3584,
      "uter": 3585,
      "Ġnoticed": 3586,
      "Ġanc": 3587,
      "andon": 3588,
      "Ġdram": 3589,
      "Ġincrease": 3590,
      "ounds": 3591,
      "Ġflowers": 3592,
      "Ġ70": 3593,
      "Ġyet": 3594,
      "ĠSal": 3595,
      "iling": 3596,
      "ij": 3597,
      "ĠInf": 3598,
      "âĤ¬â": 3599,
      "Ġcm": 3600,
      "ĠUp": 3601,
      "Ġ33": 3602,
      "Ġsal": 3603,
      "Ġminute": 3604,
      "Ġoperations": 3605,
      "ĠPacific": 3606,
      "ĠSun": 3607,
      "Ġremoved": 3608,
      "Ġcountries": 3609,
      "Ġmeeting": 3610,
      "Ġcars": 3611,
      "rong": 3612,
      "Ġamaz": 3613,
      "Ġissued": 3614,
      "ĠJohnson": 3615,
      "ethod": 3616,
      "Ġletter": 3617,
      "ĠLet": 3618,
      "ĠAwards": 3619,
      "ĠRh": 3620,
      "Ġcatch": 3621,
      "Ġportray": 3622,
      "Ġhair": 3623,
      "Ġbreed": 3624,
      "ĠEnter": 3625,
      "Ġnature": 3626,
      "ari": 3627,
      "Ġquarter": 3628,
      "Ġofficers": 3629,
      "Ġcapital": 3630,
      "umn": 3631,
      "ortun": 3632,
      "Ġproblems": 3633,
      "uce": 3634,
      "oint": 3635,
      "Ġlikely": 3636,
      "Ġpu": 3637,
      "Ġbattles": 3638,
      "Ġprotect": 3639,
      "Ġtarget": 3640,
      "Ġmanager": 3641,
      "ĠBec": 3642,
      "Ġpow": 3643,
      "Ġfocus": 3644,
      "Ġdeg": 3645,
      "Ġsmaller": 3646,
      "ĠTour": 3647,
      "ĠDad": 3648,
      "Ġcomplex": 3649,
      "stant": 3650,
      "Ġstories": 3651,
      "ĠLit": 3652,
      "ĠKen": 3653,
      "Ġgoals": 3654,
      "cepted": 3655,
      "Ġready": 3656,
      "Ġplans": 3657,
      "Ġ1998": 3658,
      "Ġprivate": 3659,
      "Ġsubsequently": 3660,
      "Ã¼": 3661,
      "ĠLake": 3662,
      "Ġtal": 3663,
      "ĠSong": 3664,
      "Ġuns": 3665,
      "Ġmiddle": 3666,
      "Ġcompan": 3667,
      "ether": 3668,
      "ili": 3669,
      "Ġinitial": 3670,
      "Ġreplied": 3671,
      "Ġgrass": 3672,
      "Ġbroken": 3673,
      "Ġincludes": 3674,
      "ĠAtlantic": 3675,
      "ĠSecond": 3676,
      "During": 3677,
      "Ġtoday": 3678,
      "astern": 3679,
      "ously": 3680,
      "Ġapproach": 3681,
      "Ġbroadcast": 3682,
      "Ġpiece": 3683,
      "ria": 3684,
      "venue": 3685,
      "vin": 3686,
      "jected": 3687,
      "ĠFollowing": 3688,
      "Ġmodel": 3689,
      "Ġcovered": 3690,
      "ĠScot": 3691,
      "ams": 3692,
      "riage": 3693,
      "ĠOver": 3694,
      "Ġcause": 3695,
      "Ġpieces": 3696,
      "ĠIts": 3697,
      "Ġraised": 3698,
      "Ġsyn": 3699,
      "ems": 3700,
      "Ġaw": 3701,
      "Ġenjoyed": 3702,
      "ĠJew": 3703,
      "Ġtons": 3704,
      "Ġrevealed": 3705,
      "ucky": 3706,
      "Ben": 3707,
      "Ġdang": 3708,
      "Ġ37": 3709,
      "Ġmoment": 3710,
      "ĠMont": 3711,
      "ĠSea": 3712,
      "ighter": 3713,
      "ĠCongress": 3714,
      "Ġanything": 3715,
      "ĠMost": 3716,
      "Ġhorse": 3717,
      "ĠFilm": 3718,
      "Ġlocation": 3719,
      "adium": 3720,
      "Ġvia": 3721,
      "Ġtable": 3722,
      "Ġgiving": 3723,
      "Ġrefused": 3724,
      "Ġdamaged": 3725,
      "Ġcolon": 3726,
      "Ġsmile": 3727,
      "Ġterms": 3728,
      "Ġconstr": 3729,
      "Ġlyrics": 3730,
      "bury": 3731,
      "Ġcanc": 3732,
      "order": 3733,
      "Ġhappened": 3734,
      "Ġvehic": 3735,
      "ounted": 3736,
      "lands": 3737,
      "ils": 3738,
      "Ġmur": 3739,
      "Ġnumbers": 3740,
      "Ġmajority": 3741,
      "ĠTur": 3742,
      "Ġsch": 3743,
      "ĠBig": 3744,
      "ĠFlorida": 3745,
      "uf": 3746,
      "Ġbene": 3747,
      "Ġservices": 3748,
      "vey": 3749,
      "ila": 3750,
      "irm": 3751,
      "ĠEarth": 3752,
      "Ġtall": 3753,
      "Ġadminist": 3754,
      "Ġword": 3755,
      "Ġproducer": 3756,
      "She": 3757,
      "Ġbright": 3758,
      "Ġadop": 3759,
      "ĠQueen": 3760,
      "Ġstatus": 3761,
      "Ġexplained": 3762,
      "Ġconsist": 3763,
      "Ġdin": 3764,
      "Ġtruck": 3765,
      "That": 3766,
      "key": 3767,
      "Ġindividual": 3768,
      "well": 3769,
      "umed": 3770,
      "ĠChina": 3771,
      "Ġflight": 3772,
      "ify": 3773,
      "ĠLater": 3774,
      "Ġperfect": 3775,
      "Ġattacks": 3776,
      "Ġcollect": 3777,
      "Ġonto": 3778,
      "Ġpair": 3779,
      "Ġswim": 3780,
      "Ġfinanc": 3781,
      "Ġattacked": 3782,
      "Ġsees": 3783,
      "uge": 3784,
      "Ġcorn": 3785,
      "ĠEv": 3786,
      "Ġrespectively": 3787,
      "ironment": 3788,
      "olf": 3789,
      "Ġinspired": 3790,
      "Ġprofessional": 3791,
      "Ġdistrib": 3792,
      "Ġpurp": 3793,
      "Ġplot": 3794,
      "reater": 3795,
      "Ġranked": 3796,
      "What": 3797,
      "Ġrab": 3798,
      "Ġcounter": 3799,
      "estival": 3800,
      "izing": 3801,
      "Ġnumerous": 3802,
      "rial": 3803,
      "Ġappears": 3804,
      "olk": 3805,
      "Ġserious": 3806,
      "ĠTexas": 3807,
      "Ġlaunched": 3808,
      "etic": 3809,
      "ĠLord": 3810,
      "Ġdomin": 3811,
      "ault": 3812,
      "Ġattempted": 3813,
      "ĠCanadian": 3814,
      "Ġcompl": 3815,
      "Ġforg": 3816,
      "ĠLove": 3817,
      "Ġoccurred": 3818,
      "aging": 3819,
      "Ġattention": 3820,
      "Ħ¢": 3821,
      "Ġflying": 3822,
      "Ġimprove": 3823,
      "âĤ¬âĦ¢": 3824,
      "ĠAfrica": 3825,
      "Ġquestion": 3826,
      "Ġassociated": 3827,
      "uals": 3828,
      "Ã³": 3829,
      "Ġshown": 3830,
      "Ġaltern": 3831,
      "ĠOper": 3832,
      "ĠTown": 3833,
      "ĠOld": 3834,
      "Ġ1997": 3835,
      "uries": 3836,
      "Ġaccomp": 3837,
      "Ġobject": 3838,
      "ĠCenter": 3839,
      "aring": 3840,
      "ĠOl": 3841,
      "Ġtrade": 3842,
      "Ġexperi": 3843,
      "Ġfavorite": 3844,
      "ĠRussian": 3845,
      "Ġ183": 3846,
      "ocked": 3847,
      "Ġconditions": 3848,
      "eph": 3849,
      "ĠCle": 3850,
      "Ġexpected": 3851,
      "Ġresulted": 3852,
      "rav": 3853,
      "Ġ90": 3854,
      "ĠSarah": 3855,
      "Ġcoach": 3856,
      "ograph": 3857,
      "Ġsubject": 3858,
      "Ġoperation": 3859,
      "Ġpack": 3860,
      "ucle": 3861,
      "lor": 3862,
      "ĠCarol": 3863,
      "aped": 3864,
      "Ġyards": 3865,
      "Ġupper": 3866,
      "ees": 3867,
      "Ġmission": 3868,
      "Ġdefeat": 3869,
      "inn": 3870,
      "ĠSquadron": 3871,
      "Ġsinger": 3872,
      "Ġcolour": 3873,
      "Ġsales": 3874,
      "Ġscript": 3875,
      "Ġprec": 3876,
      "ĠWood": 3877,
      "ĠMel": 3878,
      "Ġsuggest": 3879,
      "Ġaudience": 3880,
      "ĠBoy": 3881,
      "Ġcomposed": 3882,
      "ĠAngeles": 3883,
      "ĠRail": 3884,
      "Ġnewsp": 3885,
      "reak": 3886,
      "Ġscient": 3887,
      "Ġselected": 3888,
      "Ġreferred": 3889,
      "irty": 3890,
      "uated": 3891,
      "Ġthick": 3892,
      "ĠFort": 3893,
      "Ġactive": 3894,
      "ĠBoth": 3895,
      "Ġmeans": 3896,
      "down": 3897,
      "ĠKent": 3898,
      "ĠTheir": 3899,
      "Ġblood": 3900,
      "ĠHighway": 3901,
      "uments": 3902,
      "hold": 3903,
      "erry": 3904,
      "ĠMur": 3905,
      "Ġmovie": 3906,
      "Ġlargely": 3907,
      "itation": 3908,
      "Ġmanaged": 3909,
      "Ġsen": 3910,
      "ĠWhat": 3911,
      "Ġadventure": 3912,
      "ĠGar": 3913,
      "Ġcritical": 3914,
      "Ġpeace": 3915,
      "Ġrare": 3916,
      "vert": 3917,
      "Ġcommented": 3918,
      "ĠHist": 3919,
      "Ġearned": 3920,
      "Ġtell": 3921,
      "Ġwrite": 3922,
      "Ġunable": 3923,
      "Ġprincip": 3924,
      "Ġfilled": 3925,
      "Ġmind": 3926,
      "Ġpet": 3927,
      "Ġarchit": 3928,
      "Ġindustry": 3929,
      "Ġassigned": 3930,
      "Ġwait": 3931,
      "Ġfavour": 3932,
      "ĠMiss": 3933,
      "itude": 3934,
      "ements": 3935,
      "Ġpractice": 3936,
      "Ġsett": 3937,
      "ĠTor": 3938,
      "ĠSom": 3939,
      "Ġinformation": 3940,
      "ĠMartin": 3941,
      "Ġdemon": 3942,
      "edy": 3943,
      "ĠCentral": 3944,
      "Ġgetting": 3945,
      "Ġofficer": 3946,
      "Ġenergy": 3947,
      "Ġprep": 3948,
      "Ġmale": 3949,
      "Ġcer": 3950,
      "oms": 3951,
      "Ġstandard": 3952,
      "ening": 3953,
      "ĠIII": 3954,
      "Ġconcer": 3955,
      "Ġ1950": 3956,
      "ĠEmpire": 3957,
      "Ġsem": 3958,
      "Ġartist": 3959,
      "Ġqual": 3960,
      "Ġbelow": 3961,
      "ĠInter": 3962,
      "ĠLaw": 3963,
      "urity": 3964,
      "Ġelected": 3965,
      "acher": 3966,
      "ĠHur": 3967,
      "Ġreason": 3968,
      "ĠBow": 3969,
      "ĠMany": 3970,
      "reme": 3971,
      "ĠDV": 3972,
      "Ġnodd": 3973,
      "Ġtraditional": 3974,
      "ado": 3975,
      "Ġissues": 3976,
      "ĠUnder": 3977,
      "Ġnames": 3978,
      "ĠCamp": 3979,
      "Ġ34": 3980,
      "ĠAnt": 3981,
      "Ġhar": 3982,
      "ĠSuddenly": 3983,
      "Ġ38": 3984,
      "Ġseparate": 3985,
      "ounts": 3986,
      "Ġlegisl": 3987,
      "Ġmetal": 3988,
      "Ġsched": 3989,
      "rugg": 3990,
      "Ġfarm": 3991,
      "ĠHol": 3992,
      "ka": 3993,
      "Ġdeclared": 3994,
      "rug": 3995,
      "ĠLu": 3996,
      "ĠItalian": 3997,
      "Ġcontains": 3998,
      "Ġability": 3999,
      "Ġblock": 4000,
      "Ġdouble": 4001,
      "Ġlaugh": 4002,
      "Ġdepression": 4003,
      "Ġending": 4004,
      "ĠBet": 4005,
      "Ġsearch": 4006,
      "Ġban": 4007,
      "ĠSue": 4008,
      "Ġnodded": 4009,
      "Ġpul": 4010,
      "Ġplat": 4011,
      "ĠApp": 4012,
      "de": 4013,
      "Ġmention": 4014,
      "Ġmatches": 4015,
      "igg": 4016,
      "ĠSir": 4017,
      "Ġbelieve": 4018,
      "Ġthin": 4019,
      "bye": 4020,
      "ĠStep": 4021,
      "Ġslide": 4022,
      "undred": 4023,
      "Ġund": 4024,
      "Ġhouses": 4025,
      "echan": 4026,
      "Ġtheat": 4027,
      "Ġprimary": 4028,
      "Ġmethod": 4029,
      "ĠViet": 4030,
      "ogue": 4031,
      "Ġda": 4032,
      "ĠServ": 4033,
      "Ġaccepted": 4034,
      "Don": 4035,
      "Ġreligious": 4036,
      "Ġrat": 4037,
      "Ġcas": 4038,
      "Ġrealized": 4039,
      "Ġbrown": 4040,
      "Ġcontinue": 4041,
      "set": 4042,
      "Ġsnow": 4043,
      "Ġcommander": 4044,
      "Ġinters": 4045,
      "Ġartic": 4046,
      "ĠCorps": 4047,
      "ĠEr": 4048,
      "ĠGroup": 4049,
      "ste": 4050,
      "Ġwing": 4051,
      "Ġaccident": 4052,
      "Ġi": 4053,
      "Ġdrum": 4054,
      "Ġcho": 4055,
      "Ġproblem": 4056,
      "Ġcompetition": 4057,
      "Ġmax": 4058,
      "ĠCath": 4059,
      "Ġproduce": 4060,
      "ĠOff": 4061,
      "Ġconcept": 4062,
      "Ġpath": 4063,
      "ani": 4064,
      "Ġlisted": 4065,
      "la": 4066,
      "ãĥ": 4067,
      "isk": 4068,
      "Ġnetwork": 4069,
      "ounded": 4070,
      "Ġchair": 4071,
      "Ġeffort": 4072,
      "Ġdra": 4073,
      "Ġconstit": 4074,
      "Ġrate": 4075,
      "odies": 4076,
      "Ġpowerful": 4077,
      "Ġnecess": 4078,
      "Ġnation": 4079,
      "ols": 4080,
      "Ġabandon": 4081,
      "ĠDVD": 4082,
      "itchen": 4083,
      "Ġstrugg": 4084,
      "Ġ1995": 4085,
      "use": 4086,
      "oly": 4087,
      "Ġrapid": 4088,
      "oses": 4089,
      "Ġshell": 4090,
      "ĠDel": 4091,
      "onic": 4092,
      "ĠDist": 4093,
      "asted": 4094,
      "ros": 4095,
      "Ġdistance": 4096,
      "Ġcomes": 4097,
      "icted": 4098,
      "Ġlif": 4099,
      "Ġunit": 4100,
      "Ġperm": 4101,
      "ĠWales": 4102,
      "Ġsleep": 4103,
      "Ġconstructed": 4104,
      "utch": 4105,
      "Ġrecomm": 4106,
      "Ġ1940": 4107,
      "everal": 4108,
      "Ġcentre": 4109,
      "arian": 4110,
      "ĠBu": 4111,
      "rie": 4112,
      "ĠCam": 4113,
      "Ġ49": 4114,
      "aph": 4115,
      "Ġtermin": 4116,
      "ĠDemocr": 4117,
      "Ġaccount": 4118,
      "ĠRev": 4119,
      "ares": 4120,
      "Ġtheme": 4121,
      "Ġamb": 4122,
      "Ġroyal": 4123,
      "Ġpicture": 4124,
      "Ġtower": 4125,
      "Ġbutter": 4126,
      "Ġbuy": 4127,
      "Ġ180": 4128,
      "Ġsomeone": 4129,
      "Ġ1996": 4130,
      "Ġhighly": 4131,
      "Ġthr": 4132,
      "Ġrepe": 4133,
      "ĠZeal": 4134,
      "ĠAnn": 4135,
      "Suddenly": 4136,
      "outed": 4137,
      "antasy": 4138,
      "ections": 4139,
      "ibly": 4140,
      "road": 4141,
      "Ġwrong": 4142,
      "Ġshared": 4143,
      "ona": 4144,
      "Ġdut": 4145,
      "Ġsweet": 4146,
      "irit": 4147,
      "Ġpresented": 4148,
      "Ġsurprise": 4149,
      "ĠCont": 4150,
      "Ġoil": 4151,
      "ĠFox": 4152,
      "Ġdeliver": 4153,
      "ĠTrans": 4154,
      "bridge": 4155,
      "anes": 4156,
      "Ġstarting": 4157,
      "Ġcombat": 4158,
      "lies": 4159,
      "Ġrecords": 4160,
      "Ġreduced": 4161,
      "ĠMinister": 4162,
      "Ġeducation": 4163,
      "ims": 4164,
      "Ġdocument": 4165,
      "Ġrout": 4166,
      "astic": 4167,
      "Ġchief": 4168,
      "Ġdirectly": 4169,
      "Ġlin": 4170,
      "ĠMore": 4171,
      "ĠRad": 4172,
      "ĠWal": 4173,
      "Ġlevels": 4174,
      "Ġnothing": 4175,
      "Ġtwenty": 4176,
      "Ġfigure": 4177,
      "house": 4178,
      "Ġannual": 4179,
      "Ġattended": 4180,
      "Ġwild": 4181,
      "quar": 4182,
      "Ġstating": 4183,
      "osen": 4184,
      "Ġmouth": 4185,
      "Ġsymb": 4186,
      "Ġresponsible": 4187,
      "oper": 4188,
      "ceeded": 4189,
      "We": 4190,
      "ĠNort": 4191,
      "edic": 4192,
      "arp": 4193,
      "ĠMass": 4194,
      "Ġsevent": 4195,
      "Ġ1994": 4196,
      "Ġarms": 4197,
      "Ġdirection": 4198,
      "Ġcalling": 4199,
      "Ġfru": 4200,
      "ĠZealand": 4201,
      "uten": 4202,
      "ĠMichigan": 4203,
      "ĠMa": 4204,
      "ĠEll": 4205,
      "Ġturns": 4206,
      "ples": 4207,
      "Ġspread": 4208,
      "ĠAnother": 4209,
      "Ġanimal": 4210,
      "Ġstayed": 4211,
      "band": 4212,
      "Ġconcert": 4213,
      "Ġrough": 4214,
      "Ġ400": 4215,
      "tery": 4216,
      "othes": 4217,
      "ĠTest": 4218,
      "Ġtext": 4219,
      "irmed": 4220,
      "Ġhill": 4221,
      "ĠOut": 4222,
      "Ġrein": 4223,
      "Ġmatter": 4224,
      "ressive": 4225,
      "Ġclimb": 4226,
      "za": 4227,
      "Ġburn": 4228,
      "ĠFred": 4229,
      "Ġcompos": 4230,
      "Ġtrou": 4231,
      "Ġtells": 4232,
      "ĠYear": 4233,
      "Ġindependent": 4234,
      "Ġadvance": 4235,
      "ender": 4236,
      "osaur": 4237,
      "ĠAfrican": 4238,
      "ĠMexico": 4239,
      "ishop": 4240,
      "Ġdism": 4241,
      "ĠSpot": 4242,
      "Ġkilomet": 4243,
      "ket": 4244,
      "Ġeverything": 4245,
      "Ġring": 4246,
      "Ġefforts": 4247,
      "Ġcandid": 4248,
      "cher": 4249,
      "unch": 4250,
      "ĠPenn": 4251,
      "ĠDis": 4252,
      "vention": 4253,
      "Ġmarriage": 4254,
      "Ġcust": 4255,
      "Äĩ": 4256,
      "Ġresulting": 4257,
      "like": 4258,
      "ancy": 4259,
      "Ġ1930": 4260,
      "ya": 4261,
      "Ġpurs": 4262,
      "ellig": 4263,
      "Ġlegal": 4264,
      "lement": 4265,
      "Ġgone": 4266,
      "lict": 4267,
      "Ġ41": 4268,
      "Ġpositions": 4269,
      "ĠCor": 4270,
      "Ġarchitect": 4271,
      "Ġcaught": 4272,
      "Ġtransport": 4273,
      "Ġlog": 4274,
      "Ġhospital": 4275,
      "ĠHel": 4276,
      "ective": 4277,
      "ette": 4278,
      "Ġmarked": 4279,
      "Ġasp": 4280,
      "Thank": 4281,
      "Ġcontent": 4282,
      "icient": 4283,
      "Ġcollege": 4284,
      "wh": 4285,
      "Ġtun": 4286,
      "wide": 4287,
      "ĠAcad": 4288,
      "Ġenvironment": 4289,
      "Ġsinging": 4290,
      "Ġpan": 4291,
      "icip": 4292,
      "Ġschools": 4293,
      "ĠHaw": 4294,
      "Ġpaid": 4295,
      "Ġcontrovers": 4296,
      "iated": 4297,
      "Ġsettle": 4298,
      "rical": 4299,
      "ĠDepartment": 4300,
      "Ġstone": 4301,
      "Ġrabbit": 4302,
      "rier": 4303,
      "fort": 4304,
      "Ġincorpor": 4305,
      "win": 4306,
      "Ġnucle": 4307,
      "ĠDar": 4308,
      "Ġsuc": 4309,
      "Ġtrue": 4310,
      "Ġcyclone": 4311,
      "Ġbeat": 4312,
      "Jo": 4313,
      "illery": 4314,
      "Ġfunny": 4315,
      "Ġstep": 4316,
      "Ġcaptain": 4317,
      "emple": 4318,
      "Ġvariety": 4319,
      "Ġmeaning": 4320,
      "ube": 4321,
      "Ġkitchen": 4322,
      "ĠJones": 4323,
      "Ġdom": 4324,
      "Ġinches": 4325,
      "ĠOx": 4326,
      "Ġbegins": 4327,
      "Ġscale": 4328,
      "Ġfeed": 4329,
      "ĠMadonna": 4330,
      "ieuten": 4331,
      "Ġdu": 4332,
      "Ġelse": 4333,
      "Ġcontinues": 4334,
      "Ġarrest": 4335,
      "ĠArab": 4336,
      "Ġattend": 4337,
      "ĠNot": 4338,
      "eway": 4339,
      "Ġsides": 4340,
      "Ġstrength": 4341,
      "Ġschol": 4342,
      "ĠWall": 4343,
      "Ġlooks": 4344,
      "che": 4345,
      "pass": 4346,
      "ading": 4347,
      "So": 4348,
      "Ġtraffic": 4349,
      "ĠNow": 4350,
      "Ġactually": 4351,
      "Ġmachine": 4352,
      "Ġcases": 4353,
      "Ġsource": 4354,
      "Ġhero": 4355,
      "ĠTime": 4356,
      "Ġ55": 4357,
      "Ġallowing": 4358,
      "Ġhundred": 4359,
      "Ġmechan": 4360,
      "Ġchampionship": 4361,
      "isation": 4362,
      "Ġcerem": 4363,
      "Ġamount": 4364,
      "Ġgoodbye": 4365,
      "aine": 4366,
      "peror": 4367,
      "ersey": 4368,
      "Ġ1992": 4369,
      "ĠGreek": 4370,
      "Ġperformances": 4371,
      "Ġokay": 4372,
      "Ġfit": 4373,
      "Ġkick": 4374,
      "Ġdry": 4375,
      "ĠScotland": 4376,
      "stitute": 4377,
      "illa": 4378,
      "ugh": 4379,
      "Ġquality": 4380,
      "Ġdream": 4381,
      "Ġscience": 4382,
      "Ġconducted": 4383,
      "Ġbank": 4384,
      "arked": 4385,
      "Ġowned": 4386,
      "ello": 4387,
      "Ġforms": 4388,
      "ĠFore": 4389,
      "inet": 4390,
      "cend": 4391,
      "thel": 4392,
      "Ġjournal": 4393,
      "utions": 4394,
      "Ġunc": 4395,
      "Ġgas": 4396,
      "Ġeconomic": 4397,
      "ulations": 4398,
      "Ġencour": 4399,
      "Ġ179": 4400,
      "ĠManc": 4401,
      "ĠInfantry": 4402,
      "Ġaccept": 4403,
      "Ġsquare": 4404,
      "ĠCreek": 4405,
      "ĠChris": 4406,
      "Ġpresence": 4407,
      "ervation": 4408,
      "Ġviewers": 4409,
      "Ġmem": 4410,
      "ĠMatt": 4411,
      "Ġedition": 4412,
      "track": 4413,
      "ĠFinal": 4414,
      "ding": 4415,
      "Ġpilot": 4416,
      "Ġstreet": 4417,
      "come": 4418,
      "ĠTre": 4419,
      "Ġ2016": 4420,
      "ĠLittle": 4421,
      "umber": 4422,
      "Ġenemy": 4423,
      "Ġpeaked": 4424,
      "Ġuses": 4425,
      "Ġfriendly": 4426,
      "ĠVer": 4427,
      "ĠHung": 4428,
      "ita": 4429,
      "Ġcollection": 4430,
      "erful": 4431,
      "ĠKh": 4432,
      "where": 4433,
      "ĠStone": 4434,
      "Ġgrew": 4435,
      "Her": 4436,
      "ieutenant": 4437,
      "Ġbal": 4438,
      "Ġmel": 4439,
      "Ġtransferred": 4440,
      "ips": 4441,
      "gl": 4442,
      "Ġrespond": 4443,
      "gypt": 4444,
      "Ġ182": 4445,
      "emorial": 4446,
      "Ġselling": 4447,
      "orter": 4448,
      "Ġmetres": 4449,
      "Ġimag": 4450,
      "Ġobserved": 4451,
      "Ġhat": 4452,
      "ector": 4453,
      "Ġbecomes": 4454,
      "orped": 4455,
      "Ġpotential": 4456,
      "Ġinch": 4457,
      "Ġscoring": 4458,
      "Ġdistinct": 4459,
      "Ġrule": 4460,
      "Ġchap": 4461,
      "Ġfear": 4462,
      "Ġblocks": 4463,
      "Ġportion": 4464,
      "ĠBost": 4465,
      "Ġmultiple": 4466,
      "ĠSince": 4467,
      "Ġexhib": 4468,
      "Ġ39": 4469,
      "Ġbehav": 4470,
      "Ġsituation": 4471,
      "ĠLo": 4472,
      "Ġcurious": 4473,
      "ĠParliament": 4474,
      "Ġgreater": 4475,
      "Ġwindow": 4476,
      "Ġencoun": 4477,
      "MS": 4478,
      "Ġopportun": 4479,
      "gen": 4480,
      "arent": 4481,
      "Ġforeign": 4482,
      "Ġconcluded": 4483,
      "inem": 4484,
      "orses": 4485,
      "Ġfounded": 4486,
      "ores": 4487,
      "Ġcrow": 4488,
      "ĠBC": 4489,
      "ĠSum": 4490,
      "ĠDen": 4491,
      "Ġbelong": 4492,
      "Ġprimarily": 4493,
      "Ġcannot": 4494,
      "ingu": 4495,
      "Ġ1991": 4496,
      "Ġpal": 4497,
      "Ġwinter": 4498,
      "Ġrelatively": 4499,
      "Ġ48": 4500,
      "mas": 4501,
      "Ġproperty": 4502,
      "Ġowner": 4503,
      "ancing": 4504,
      "Ġ42": 4505,
      "isy": 4506,
      "ĠChe": 4507,
      "ĠIre": 4508,
      "thur": 4509,
      "ĠTri": 4510,
      "Ġthrow": 4511,
      "Ġgather": 4512,
      "ĠEgypt": 4513,
      "apes": 4514,
      "itiz": 4515,
      "Ġweather": 4516,
      "ĠSecret": 4517,
      "right": 4518,
      "Ġ181": 4519,
      "ĠLong": 4520,
      "Ġpaint": 4521,
      "Ġfinancial": 4522,
      "Ġdrive": 4523,
      "ĠHal": 4524,
      "Ġattempts": 4525,
      "Åį": 4526,
      "ners": 4527,
      "Ġplays": 4528,
      "Ġcake": 4529,
      "Ġcompletely": 4530,
      "Ġfederal": 4531,
      "lied": 4532,
      "ĠDou": 4533,
      "Ġanymore": 4534,
      "ĠTeam": 4535,
      "Ġwriters": 4536,
      "ĠLatin": 4537,
      "ĠStan": 4538,
      "Ġconcern": 4539,
      "iance": 4540,
      "hab": 4541,
      "Ġge": 4542,
      "Ġresist": 4543,
      "Ġ1993": 4544,
      "Ġacting": 4545,
      "sych": 4546,
      "Ġstruck": 4547,
      "Ġ65": 4548,
      "Ġahead": 4549,
      "ĠNews": 4550,
      "Ġmagn": 4551,
      "ager": 4552,
      "Ġnews": 4553,
      "ĠAdmiral": 4554,
      "Ġtitled": 4555,
      "ĠWilliams": 4556,
      "ĠFour": 4557,
      "ĠCons": 4558,
      "ini": 4559,
      "Ġjumped": 4560,
      "Ġslowly": 4561,
      "elly": 4562,
      "Ġroll": 4563,
      "ero": 4564,
      "Ġgives": 4565,
      "andy": 4566,
      "ĠCommittee": 4567,
      "Ġmist": 4568,
      "Ġpremi": 4569,
      "From": 4570,
      "ĠTen": 4571,
      "ĠSat": 4572,
      "Ġconcent": 4573,
      "Ġresc": 4574,
      "Ġactions": 4575,
      "Ġultimately": 4576,
      "Ġolder": 4577,
      "Ġvocal": 4578,
      "ĠKar": 4579,
      "Ġgrabbed": 4580,
      "Ġslightly": 4581,
      "Ġgained": 4582,
      "ĠGames": 4583,
      "ease": 4584,
      "light": 4585,
      "Ġtorped": 4586,
      "Ġcompanies": 4587,
      "Ġinnings": 4588,
      "Ġglad": 4589,
      "ada": 4590,
      "Ġrating": 4591,
      "gal": 4592,
      "Ġsend": 4593,
      "ends": 4594,
      "Ġ1942": 4595,
      "ĠRecords": 4596,
      "Ġcloud": 4597,
      "ĠPrince": 4598,
      "Ġcollabor": 4599,
      "Ġdivided": 4600,
      "Ġactor": 4601,
      "Ġbranch": 4602,
      "Ġegg": 4603,
      "Ġwaters": 4604,
      "John": 4605,
      "ror": 4606,
      "ĠSouthern": 4607,
      "known": 4608,
      "ĠOh": 4609,
      "ĠJen": 4610,
      "ĠVietn": 4611,
      "ĠClark": 4612,
      "ibrary": 4613,
      "Ġplaces": 4614,
      "iano": 4615,
      "while": 4616,
      "Ġkids": 4617,
      "gian": 4618,
      "lam": 4619,
      "ĠSur": 4620,
      "Ġsought": 4621,
      "Ġreaching": 4622,
      "Ġ47": 4623,
      "Ġdisco": 4624,
      "Ġhun": 4625,
      "ĠMommy": 4626,
      "ĠJeff": 4627,
      "Ġmaximum": 4628,
      "Ġbag": 4629,
      "icious": 4630,
      "Ġbound": 4631,
      "Ġearth": 4632,
      "ĠChief": 4633,
      "Ġpattern": 4634,
      "ĠManchester": 4635,
      "Ġfeaturing": 4636,
      "Ġiron": 4637,
      "ĠBoston": 4638,
      "Ġserve": 4639,
      "Ġoffer": 4640,
      "ĠArch": 4641,
      "Ġholding": 4642,
      "Ġpassing": 4643,
      "Ġmainly": 4644,
      "alle": 4645,
      "ĠBridge": 4646,
      "ĠSociety": 4647,
      "Ġtourn": 4648,
      "Ġansw": 4649,
      "Ġflower": 4650,
      "ux": 4651,
      "Ġseconds": 4652,
      "Ġinfluenced": 4653,
      "perial": 4654,
      "ented": 4655,
      "hips": 4656,
      "ĠCommission": 4657,
      "aga": 4658,
      "rick": 4659,
      "olved": 4660,
      "Ġwel": 4661,
      "Ġhus": 4662,
      "ĠOtt": 4663,
      "Ġvess": 4664,
      "Ġnortheast": 4665,
      "urt": 4666,
      "Ġsuit": 4667,
      "Ġlake": 4668,
      "ĠSwed": 4669,
      "Ġalongside": 4670,
      "oul": 4671,
      "ĠPan": 4672,
      "force": 4673,
      "Ġsociety": 4674,
      "Ġcombined": 4675,
      "Ġsout": 4676,
      "Ġculture": 4677,
      "Ġpond": 4678,
      "Ġthous": 4679,
      "unny": 4680,
      "ĠWin": 4681,
      "Ġpit": 4682,
      "ĠBrad": 4683,
      "Ġofficials": 4684,
      "Ġess": 4685,
      "ĠFoot": 4686,
      "ĠLee": 4687,
      "Ġreform": 4688,
      "Ġextra": 4689,
      "ĠStephen": 4690,
      "Ġwave": 4691,
      "Ġbeach": 4692,
      "ĠGre": 4693,
      "Ġnotes": 4694,
      "Ġremembered": 4695,
      "Ġstra": 4696,
      "Ġ64": 4697,
      "Ġhole": 4698,
      "Ġelectric": 4699,
      "stein": 4700,
      "annel": 4701,
      "Ġwished": 4702,
      "ĠCaptain": 4703,
      "ĠCroat": 4704,
      "itan": 4705,
      "Ġ1944": 4706,
      "Ġtrial": 4707,
      "ĠParis": 4708,
      "ĠAp": 4709,
      "Ġequip": 4710,
      "Ġescape": 4711,
      "Ġconver": 4712,
      "Ġproved": 4713,
      "ĠSol": 4714,
      "Ġsurprised": 4715,
      "ables": 4716,
      "Ġbud": 4717,
      "Ġdesignated": 4718,
      "Ġactivity": 4719,
      "ĠEveryone": 4720,
      "Ġwalls": 4721,
      "Ġ46": 4722,
      "Ġpromoted": 4723,
      "ĠCross": 4724,
      "Ġimpact": 4725,
      "ĠAmericans": 4726,
      "Ġwidely": 4727,
      "acts": 4728,
      "Ġsud": 4729,
      "imate": 4730,
      "ĠColumb": 4731,
      "ĠHarrison": 4732,
      "Look": 4733,
      "writ": 4734,
      "Ġpolicy": 4735,
      "Ġvisited": 4736,
      "ĠFar": 4737,
      "Ġrecent": 4738,
      "By": 4739,
      "Ġtired": 4740,
      "Ġseat": 4741,
      "Ġplatform": 4742,
      "Ġnaval": 4743,
      "Ġ150": 4744,
      "Ġconflict": 4745,
      "ĠHan": 4746,
      "ĠBBC": 4747,
      "Ġseg": 4748,
      "resh": 4749,
      "Ġ52": 4750,
      "Ġartists": 4751,
      "Ġchose": 4752,
      "ĠHor": 4753,
      "Ġcausing": 4754,
      "Ġconfirmed": 4755,
      "Ġgreatest": 4756,
      "chest": 4757,
      "ubb": 4758,
      "Ġcharge": 4759,
      "bon": 4760,
      "ĠOxford": 4761,
      "Ġcamer": 4762,
      "rot": 4763,
      "Ġbaby": 4764,
      "Ġlady": 4765,
      "Ġ44": 4766,
      "Ġir": 4767,
      "isco": 4768,
      "Ġchallen": 4769,
      "Ġinterp": 4770,
      "bur": 4771,
      "Ġride": 4772,
      "ĠDes": 4773,
      "ĠAcademy": 4774,
      "ĠBrigade": 4775,
      "ucks": 4776,
      "Ġsense": 4777,
      "Ġhall": 4778,
      "Ġfunction": 4779,
      "ads": 4780,
      "Ġnorthwest": 4781,
      "Ġsplit": 4782,
      "ĠEntertain": 4783,
      "Ġsixth": 4784,
      "ĠJoseph": 4785,
      "ĠAvenue": 4786,
      "Ġ43": 4787,
      "Ġwebs": 4788,
      "Ġfinish": 4789,
      "Ġshortly": 4790,
      "Ġsubsequent": 4791,
      "Ġrang": 4792,
      "Ġsurre": 4793,
      "Ġeye": 4794,
      "ĠItaly": 4795,
      "rec": 4796,
      "acks": 4797,
      "ĠMount": 4798,
      "mond": 4799,
      "ota": 4800,
      "istry": 4801,
      "ĠLine": 4802,
      "TV": 4803,
      "Ġsust": 4804,
      "ĠBeat": 4805,
      "ĠSil": 4806,
      "Ġbutterf": 4807,
      "Ġemot": 4808,
      "Ġplants": 4809,
      "Ġwet": 4810,
      "Ġnominated": 4811,
      "Ġfan": 4812,
      "ylvan": 4813,
      "ĠCharl": 4814,
      "ĠBattalion": 4815,
      "Ġargued": 4816,
      "usion": 4817,
      "Ġ1920": 4818,
      "quarters": 4819,
      "rative": 4820,
      "ockey": 4821,
      "Ġcounty": 4822,
      "ĠVan": 4823,
      "isa": 4824,
      "Ġlaid": 4825,
      "ĠFleet": 4826,
      "asty": 4827,
      "ias": 4828,
      "Ġtransl": 4829,
      "Ġinvasion": 4830,
      "Ġexpressed": 4831,
      "Ġadj": 4832,
      "Ġfamous": 4833,
      "Ġow": 4834,
      "ĠCare": 4835,
      "ĠSant": 4836,
      "Anna": 4837,
      "mark": 4838,
      "This": 4839,
      "Ġnormal": 4840,
      "town": 4841,
      "Ġsystems": 4842,
      "Ġrid": 4843,
      "ĠCarl": 4844,
      "ĠSaint": 4845,
      "Ġmeasure": 4846,
      "Ġgrowing": 4847,
      "iÄĩ": 4848,
      "ĠExp": 4849,
      "udd": 4850,
      "ĠEntertainment": 4851,
      "Ġborder": 4852,
      "Ġsources": 4853,
      "cing": 4854,
      "Ġequipment": 4855,
      "Ġimage": 4856,
      "ĠTra": 4857,
      "HL": 4858,
      "ĠDire": 4859,
      "Ġextr": 4860,
      "ĠIreland": 4861,
      "Ġavoid": 4862,
      "Ġsoundtrack": 4863,
      "Ġstanding": 4864,
      "Ġshel": 4865,
      "Ġdelay": 4866,
      "Ġ1941": 4867,
      "Ġmouse": 4868,
      "adel": 4869,
      "Ġsexual": 4870,
      "Ġunknown": 4871,
      "Can": 4872,
      "ĠGood": 4873,
      "Ġate": 4874,
      "ĠCatholic": 4875,
      "Ġwants": 4876,
      "ĠTer": 4877,
      "ĠPrinc": 4878,
      "Ġheavily": 4879,
      "ĠPen": 4880,
      "Ġ1945": 4881,
      "AS": 4882,
      "Ġidentified": 4883,
      "Ġmountain": 4884,
      "Ġbott": 4885,
      "Ġtheory": 4886,
      "Ġrequire": 4887,
      "Ġvalue": 4888,
      "ppy": 4889,
      "Ġrob": 4890,
      "ighth": 4891,
      "Ġchem": 4892,
      "Ġnegot": 4893,
      "ategory": 4894,
      "Ġartillery": 4895,
      "Ġweapons": 4896,
      "Ġresults": 4897,
      "ĠThree": 4898,
      "Ġdetermined": 4899,
      "Ġjun": 4900,
      "Ġresidents": 4901,
      "ĠMajor": 4902,
      "Ġguard": 4903,
      "Ġphysical": 4904,
      "ufact": 4905,
      "Ġalbums": 4906,
      "Ġera": 4907,
      "Ġbasket": 4908,
      "ĠJul": 4909,
      "iverse": 4910,
      "Ġhorses": 4911,
      "ĠWay": 4912,
      "Ġseasons": 4913,
      "Ġhusband": 4914,
      "ĠFur": 4915,
      "ls": 4916,
      "Ġfired": 4917,
      "izes": 4918,
      "ĠMic": 4919,
      "under": 4920,
      "Ġcities": 4921,
      "Ġteach": 4922,
      "AF": 4923,
      "Ġstudent": 4924,
      "Ġrepresented": 4925,
      "Ġsupply": 4926,
      "Ġdepart": 4927,
      "Ġwasn": 4928,
      "Ġorganized": 4929,
      "ĠArm": 4930,
      "Ġcapture": 4931,
      "Ġdedic": 4932,
      "Ġreturning": 4933,
      "Ġneighbor": 4934,
      "Ġconsisted": 4935,
      "ĠRos": 4936,
      "Ġsetting": 4937,
      "Ġinstrument": 4938,
      "ĠSeries": 4939,
      "Ġfat": 4940,
      "Ġdefend": 4941,
      "Ġapparent": 4942,
      "Ġcrowd": 4943,
      "Ġdebuted": 4944,
      "Ġ1943": 4945,
      "ĠWind": 4946,
      "olt": 4947,
      "Ġcart": 4948,
      "ĠSn": 4949,
      "Ġprominent": 4950,
      "ĠRegiment": 4951,
      "edition": 4952,
      "Ġlaws": 4953,
      "Ġappeal": 4954,
      "Ġplanet": 4955,
      "uled": 4956,
      "Ġagg": 4957,
      "Ġdefense": 4958,
      "Ġofficially": 4959,
      "essions": 4960,
      "Ġuniversity": 4961,
      "hi": 4962,
      "Ġlabel": 4963,
      "ĠVictoria": 4964,
      "Ġstudies": 4965,
      "urban": 4966,
      "inary": 4967,
      "Ġcouple": 4968,
      "ecting": 4969,
      "Ġswing": 4970,
      "ĠService": 4971,
      "Ġgoes": 4972,
      "ala": 4973,
      "Ġspin": 4974,
      "ĠConf": 4975,
      "Ġfigures": 4976,
      "Ġbul": 4977,
      "Ġcontrast": 4978,
      "Ġinstit": 4979,
      "Ġlives": 4980,
      "Ġcontemporary": 4981,
      "ĠNorm": 4982,
      "Ġexecutive": 4983,
      "ĠAlb": 4984,
      "eg": 4985,
      "Ġtoward": 4986,
      "Ġinjury": 4987,
      "eed": 4988,
      "Ġelev": 4989,
      "ĠDef": 4990,
      "ĠDutch": 4991,
      "lers": 4992,
      "ĠBilly": 4993,
      "Ġdistrict": 4994,
      "Ġaired": 4995,
      "Ġmaintained": 4996,
      "ĠRy": 4997,
      "Ġspring": 4998,
      "ĠBlue": 4999,
      "Ġoccasion": 5000,
      "Ġdoub": 5001,
      "ĠRay": 5002,
      "Ġprepar": 5003,
      "ĠValley": 5004,
      "Ġorganization": 5005,
      "azz": 5006,
      "Ġspirit": 5007,
      "amber": 5008,
      "antly": 5009,
      "ĠMuseum": 5010,
      "Ġleaders": 5011,
      "Ġcommunic": 5012,
      "ansion": 5013,
      "Ġaffected": 5014,
      "Ġbackground": 5015,
      "inger": 5016,
      "Ġcriticized": 5017,
      "Ġeth": 5018,
      "Ġgrowth": 5019,
      "Ġcard": 5020,
      "Ġ51": 5021,
      "Ġhoped": 5022,
      "laim": 5023,
      "Ġachieve": 5024,
      "ella": 5025,
      "Ġdiam": 5026,
      "orks": 5027,
      "Ġdrop": 5028,
      "Ġappearances": 5029,
      "ĠLiber": 5030,
      "ĠSpec": 5031,
      "iot": 5032,
      "anda": 5033,
      "onc": 5034,
      "Ġroof": 5035,
      "Ġdrug": 5036,
      "ĠKr": 5037,
      "pool": 5038,
      "ylvania": 5039,
      "Ġpun": 5040,
      "abeth": 5041,
      "ply": 5042,
      "Ġfa": 5043,
      "Ġcoal": 5044,
      "Ġemph": 5045,
      "ĠDev": 5046,
      "ĠMat": 5047,
      "ĠShow": 5048,
      "Ġcarefully": 5049,
      "intend": 5050,
      "Ġterritory": 5051,
      "Ġversions": 5052,
      "Ġbought": 5053,
      "elve": 5054,
      "Ġfuel": 5055,
      "iable": 5056,
      "acity": 5057,
      "Ġpoet": 5058,
      "Ġshouted": 5059,
      "ety": 5060,
      "Ġworry": 5061,
      "Ġox": 5062,
      "Ġmum": 5063,
      "Ġsave": 5064,
      "Ġign": 5065,
      "Ġunus": 5066,
      "hire": 5067,
      "Ġancient": 5068,
      "Ġunique": 5069,
      "Ġchosen": 5070,
      "Ġsenior": 5071,
      "Ġfaced": 5072,
      "ĠSeveral": 5073,
      "ola": 5074,
      "Ġasks": 5075,
      "Ġdrink": 5076,
      "Ġwit": 5077,
      "Ġ600": 5078,
      "hew": 5079,
      "ental": 5080,
      "Ġtwice": 5081,
      "ickets": 5082,
      "Ġtrip": 5083,
      "Ġcitiz": 5084,
      "ledge": 5085,
      "ĠSk": 5086,
      "iger": 5087,
      "Ġexec": 5088,
      "isher": 5089,
      "Ġopin": 5090,
      "Ġsilver": 5091,
      "Ġactivities": 5092,
      "omy": 5093,
      "Ġpropos": 5094,
      "Ġfully": 5095,
      "aven": 5096,
      "Ġmoral": 5097,
      "ev": 5098,
      "ĠMiddle": 5099,
      "Ġmedical": 5100,
      "Ġur": 5101,
      "Ġju": 5102,
      "Ġble": 5103,
      "Ġpull": 5104,
      "ĠLight": 5105,
      "Ġworldwide": 5106,
      "Ġjourney": 5107,
      "Ġcolors": 5108,
      "Ġmic": 5109,
      "Ġhol": 5110,
      "ĠHomer": 5111,
      "Ġrainfall": 5112,
      "ĠDun": 5113,
      "stone": 5114,
      "ayer": 5115,
      "Ġyummy": 5116,
      "ĠBook": 5117,
      "Ġspeech": 5118,
      "aling": 5119,
      "Ġintellig": 5120,
      "Ġreference": 5121,
      "ĠTay": 5122,
      "Ġnewspaper": 5123,
      "Ġdemonstr": 5124,
      "oration": 5125,
      "Ġsens": 5126,
      "Ġtherefore": 5127,
      "Ġ1989": 5128,
      "Ġhistorian": 5129,
      "ĠAut": 5130,
      "ĠEven": 5131,
      "ĠRam": 5132,
      "inson": 5133,
      "Ġguest": 5134,
      "acement": 5135,
      "ĠClass": 5136,
      "Ġclaims": 5137,
      "ĠBecause": 5138,
      "box": 5139,
      "ishes": 5140,
      "adow": 5141,
      "Ġsingles": 5142,
      "ĠCarolina": 5143,
      "isters": 5144,
      "Ġfrequently": 5145,
      "ĠEliz": 5146,
      "Ġstations": 5147,
      "Ġformation": 5148,
      "ĠBus": 5149,
      "Ġcontained": 5150,
      "Ġsimply": 5151,
      "Ġenter": 5152,
      "Ġseemed": 5153,
      "Ġnest": 5154,
      "apers": 5155,
      "Ġhomes": 5156,
      "pe": 5157,
      "embly": 5158,
      "Ġterr": 5159,
      "Ġworkers": 5160,
      "Ġmurder": 5161,
      "asure": 5162,
      "ĠBey": 5163,
      "Ġhyd": 5164,
      "Ġvocals": 5165,
      "Ġsurrounding": 5166,
      "ivity": 5167,
      "Ġreign": 5168,
      "Ġpasses": 5169,
      "gu": 5170,
      "eds": 5171,
      "ĠGeorg": 5172,
      "Ġtreatment": 5173,
      "Ġpulled": 5174,
      "ĠFre": 5175,
      "eller": 5176,
      "Ġentr": 5177,
      "ĠBond": 5178,
      "ĠStr": 5179,
      "estic": 5180,
      "ĠCommun": 5181,
      "ĠOcean": 5182,
      "Ġtournament": 5183,
      "Ġfrog": 5184,
      "Ġask": 5185,
      "Ġcell": 5186,
      "Ġut": 5187,
      "isf": 5188,
      "ĠEnd": 5189,
      "ĠAv": 5190,
      "orrow": 5191,
      "Ġkg": 5192,
      "Ġagreement": 5193,
      "lusion": 5194,
      "Ġaccompan": 5195,
      "ĠMike": 5196,
      "emic": 5197,
      "ĠHolly": 5198,
      "Ġlosing": 5199,
      "ifying": 5200,
      "Ġtypically": 5201,
      "ĠGal": 5202,
      "Ġcreating": 5203,
      "Ġopt": 5204,
      "ĠLike": 5205,
      "Ġreports": 5206,
      "Ġcondition": 5207,
      "Ġideas": 5208,
      "Ġpictures": 5209,
      "Ġdangerous": 5210,
      "ĠDam": 5211,
      "rid": 5212,
      "Ġgovernor": 5213,
      "Ġwounded": 5214,
      "Ġorders": 5215,
      "ĠNorthern": 5216,
      "uous": 5217,
      "ĠRom": 5218,
      "Ġsurrender": 5219,
      "Ġwings": 5220,
      "ilies": 5221,
      "There": 5222,
      "Ġserving": 5223,
      "pts": 5224,
      "Ġnewly": 5225,
      "Ġmanufact": 5226,
      "Ġdyn": 5227,
      "ĠFantasy": 5228,
      "mit": 5229,
      "ĠScottish": 5230,
      "ĠJon": 5231,
      "Ġoperated": 5232,
      "Ġcert": 5233,
      "igr": 5234,
      "Ġdegree": 5235,
      "ĠDistrict": 5236,
      "Ġbillion": 5237,
      "erc": 5238,
      "ĠChristmas": 5239,
      "ĠYoung": 5240,
      "ĠGuard": 5241,
      "Ġsail": 5242,
      "Ġfollows": 5243,
      "Ġopposed": 5244,
      "Ġmotor": 5245,
      "Ġdrew": 5246,
      "ĠWeek": 5247,
      "Ġweight": 5248,
      "Ġexperiment": 5249,
      "ĠPolish": 5250,
      "Ġparticipated": 5251,
      "Ġdraft": 5252,
      "Ġadapt": 5253,
      "Ġemphas": 5254,
      "Ġauthority": 5255,
      "ĠLand": 5256,
      "Ġtom": 5257,
      "ĠDuke": 5258,
      "ysis": 5259,
      "Ġstraight": 5260,
      "Ġnative": 5261,
      "Ġunf": 5262,
      "ĠDaniel": 5263,
      "Ġhung": 5264,
      "Ġhelping": 5265,
      "Ġmaster": 5266,
      "agn": 5267,
      "Ġfought": 5268,
      "Ġfresh": 5269,
      "ĠAllied": 5270,
      "Ġadvanced": 5271,
      "ĠHa": 5272,
      "Ġproducers": 5273,
      "lying": 5274,
      "ĠTop": 5275,
      "rael": 5276,
      "Ġchoice": 5277,
      "ĠRog": 5278,
      "onents": 5279,
      "ĠDi": 5280,
      "Ġadvant": 5281,
      "Ġcasual": 5282,
      "ĠSystem": 5283,
      "Ġshark": 5284,
      "Ġelement": 5285,
      "Ġsevere": 5286,
      "Ġ85": 5287,
      "Ġrailway": 5288,
      "Ġconsecutive": 5289,
      "Ġwonderful": 5290,
      "resp": 5291,
      "Ġ53": 5292,
      "yard": 5293,
      "Ġpink": 5294,
      "ĠMarsh": 5295,
      "Ġbenef": 5296,
      "Ġprin": 5297,
      "Ġfinds": 5298,
      "ĠAre": 5299,
      "ĠPop": 5300,
      "Ġwaved": 5301,
      "ricult": 5302,
      "Ġbey": 5303,
      "Ġopposition": 5304,
      "Ġadopted": 5305,
      "ĠCat": 5306,
      "ĠLy": 5307,
      "ĠSa": 5308,
      "Ġsquadron": 5309,
      "ĠIll": 5310,
      "TC": 5311,
      "ĠOs": 5312,
      "then": 5313,
      "Ġreceive": 5314,
      "ĠLife": 5315,
      "Ġunp": 5316,
      "Ġcomputer": 5317,
      "Ġrear": 5318,
      "Ġfilming": 5319,
      "icks": 5320,
      "Ġpushed": 5321,
      "ĠAdd": 5322,
      "Ġpsych": 5323,
      "Ġends": 5324,
      "Ġvote": 5325,
      "war": 5326,
      "ĠMen": 5327,
      "ounger": 5328,
      "ĠGovernor": 5329,
      "Ġbeyond": 5330,
      "ĠEastern": 5331,
      "Ġachieved": 5332,
      "Ġbudget": 5333,
      "utation": 5334,
      "ĠPenns": 5335,
      "Ġoffensive": 5336,
      "Ġabandoned": 5337,
      "isers": 5338,
      "ashed": 5339,
      "onn": 5340,
      "ĠForm": 5341,
      "Ġsteam": 5342,
      "ĠSenate": 5343,
      "min": 5344,
      "ĠPost": 5345,
      "stitution": 5346,
      "While": 5347,
      "Ġattrib": 5348,
      "Ġactors": 5349,
      "Ġphil": 5350,
      "ote": 5351,
      "Ġcouncil": 5352,
      "ĠCorn": 5353,
      "Ġrisk": 5354,
      "Ġwebsite": 5355,
      "Ġeditor": 5356,
      "ĠCivil": 5357,
      "Ġlands": 5358,
      "Ġtrust": 5359,
      "Ġvo": 5360,
      "Ġsounds": 5361,
      "Ġcorner": 5362,
      "active": 5363,
      "Ġhabit": 5364,
      "ĠFootball": 5365,
      "ran": 5366,
      "Ġbasis": 5367,
      "ĠJac": 5368,
      "ĠBart": 5369,
      "Ġregarded": 5370,
      "Ġboats": 5371,
      "Ġquiet": 5372,
      "Ġquite": 5373,
      "Ġpig": 5374,
      "imens": 5375,
      "Ġ+": 5376,
      "Ġcompar": 5377,
      "Ġrow": 5378,
      "Ġhope": 5379,
      "ocated": 5380,
      "ĠHarry": 5381,
      "uses": 5382,
      "Ġforgot": 5383,
      "iate": 5384,
      "Ġrival": 5385,
      "ĠField": 5386,
      "Ã¨": 5387,
      "Ġfaster": 5388,
      "Ġpromised": 5389,
      "ĠHard": 5390,
      "ĠLew": 5391,
      "Ġcapacity": 5392,
      "ĠRod": 5393,
      "ĠAmy": 5394,
      "Ġrepeated": 5395,
      "ĠGra": 5396,
      "Ġbodies": 5397,
      "Ġliber": 5398,
      "kins": 5399,
      "Ġindividuals": 5400,
      "iday": 5401,
      "ker": 5402,
      "Ġfiction": 5403,
      "Ġ95": 5404,
      "Ġroads": 5405,
      "Ġlaunch": 5406,
      "Ġspect": 5407,
      "Ġsports": 5408,
      "Ġfilmed": 5409,
      "Ġfailure": 5410,
      "aly": 5411,
      "ĠBre": 5412,
      "Ġsequence": 5413,
      "Ġgranted": 5414,
      "outs": 5415,
      "Ġ1987": 5416,
      "Ġdinner": 5417,
      "'re": 5418,
      "Ġnarrow": 5419,
      "ĠGirl": 5420,
      "Ġevac": 5421,
      "zer": 5422,
      "Ġprogress": 5423,
      "anwhile": 5424,
      "Ġstrike": 5425,
      "Ġast": 5426,
      "Ġimproved": 5427,
      "Ġedge": 5428,
      "Ġstret": 5429,
      "pton": 5430,
      "Ġpossibly": 5431,
      "stead": 5432,
      "Ġdismiss": 5433,
      "asts": 5434,
      "ĠIrish": 5435,
      "ampion": 5436,
      "cer": 5437,
      "Ġdeploy": 5438,
      "Ġcriticism": 5439,
      "ĠGovernment": 5440,
      "Ã¤": 5441,
      "ĠFestival": 5442,
      "Ġ54": 5443,
      "oted": 5444,
      "gest": 5445,
      "ĠCastle": 5446,
      "ods": 5447,
      "Ġbunny": 5448,
      "ĠEach": 5449,
      "Ġbutterfly": 5450,
      "Ġharm": 5451,
      "Ġbrothers": 5452,
      "ĠJud": 5453,
      "ato": 5454,
      "Ġcontain": 5455,
      "ĠOp": 5456,
      "Ġconduct": 5457,
      "Although": 5458,
      "ĠMod": 5459,
      "Ġtrains": 5460,
      "aves": 5461,
      "ĠColon": 5462,
      "Ġlikes": 5463,
      "Ġpainting": 5464,
      "cel": 5465,
      "ĠLind": 5466,
      "gend": 5467,
      "Ġfellow": 5468,
      "Ġnegative": 5469,
      "Ġnecessary": 5470,
      "Ġtorpedo": 5471,
      "ĠSpain": 5472,
      "orters": 5473,
      "Ġarmed": 5474,
      "Ġhistorical": 5475,
      "ype": 5476,
      "ĠTaylor": 5477,
      "ura": 5478,
      "iro": 5479,
      "Ġgross": 5480,
      "Ġclothes": 5481,
      "ĠIslands": 5482,
      "Ġcontact": 5483,
      "ĠPers": 5484,
      "ĠAlbert": 5485,
      "ĠAlexander": 5486,
      "Ġcup": 5487,
      "imet": 5488,
      "Ġwearing": 5489,
      "nic": 5490,
      "Ġtrav": 5491,
      "ĠGerm": 5492,
      "Ġincident": 5493,
      "Ġtwelve": 5494,
      "Ġworth": 5495,
      "Ġlesson": 5496,
      "ĠTech": 5497,
      "Ġ1988": 5498,
      "ription": 5499,
      "Ġkilling": 5500,
      "Ġcrossing": 5501,
      "Mommy": 5502,
      "Ġcricket": 5503,
      "ĠElizabeth": 5504,
      "ĠSund": 5505,
      "Ġbriefly": 5506,
      "Ġeffective": 5507,
      "Ġhonor": 5508,
      "Ġ56": 5509,
      "Ġclosely": 5510,
      "Ġexpansion": 5511,
      "ĠBefore": 5512,
      "ĠCa": 5513,
      "inal": 5514,
      "Ġsuccessfully": 5515,
      "Ġconce": 5516,
      "Ġextensive": 5517,
      "Ġcreation": 5518,
      "ĠNight": 5519,
      "Ġperman": 5520,
      "ĠWilson": 5521,
      "Ġmob": 5522,
      "Ġrom": 5523,
      "ĠAndrew": 5524,
      "Ġspeak": 5525,
      "Ġrejected": 5526,
      "Ġinterchange": 5527,
      "ĠPennsylvania": 5528,
      "Ġdoctor": 5529,
      "ĠHistor": 5530,
      "Ġkilometres": 5531,
      "ĠSquare": 5532,
      "Ġ177": 5533,
      "Ġroles": 5534,
      "umes": 5535,
      "Ġhid": 5536,
      "ĠBor": 5537,
      "Ġrot": 5538,
      "Ġcab": 5539,
      "Ġpurpose": 5540,
      "Ġretired": 5541,
      "Ġinfantry": 5542,
      "Ġcried": 5543,
      "Ġshape": 5544,
      "Ġexpress": 5545,
      "Ġexpanded": 5546,
      "Ġlanding": 5547,
      "mosp": 5548,
      "Ġbug": 5549,
      "Ġwealth": 5550,
      "ĠHurricane": 5551,
      "ĠPo": 5552,
      "Ġbath": 5553,
      "Ġ76": 5554,
      "ĠHy": 5555,
      "Ġmis": 5556,
      "iments": 5557,
      "ĠMD": 5558,
      "Ġchance": 5559,
      "ĠStudios": 5560,
      "Ġfruit": 5561,
      "Ġdisease": 5562,
      "eddy": 5563,
      "Ġvehicles": 5564,
      "Ġparalle": 5565,
      "avalry": 5566,
      "ãĤ": 5567,
      "ĠMul": 5568,
      "Ġaim": 5569,
      "enger": 5570,
      "Ġsuggests": 5571,
      "edom": 5572,
      "Ġglass": 5573,
      "ĠCoast": 5574,
      "Ġdefin": 5575,
      "Ġhappily": 5576,
      "uccess": 5577,
      "ĠWat": 5578,
      "ĠOperation": 5579,
      "ĠSus": 5580,
      "ĠJersey": 5581,
      "Ġmentioned": 5582,
      "Ġfamilies": 5583,
      "haps": 5584,
      "Ġcolumn": 5585,
      "iana": 5586,
      "Ġfranch": 5587,
      "Ġacquired": 5588,
      "och": 5589,
      "Ġcommissioned": 5590,
      "ima": 5591,
      "Ġath": 5592,
      "ĠSS": 5593,
      "Ġmile": 5594,
      "shire": 5595,
      "ooth": 5596,
      "Ġprefer": 5597,
      "Ġdata": 5598,
      "Ġsolo": 5599,
      "ĠThough": 5600,
      "Ġadministration": 5601,
      "Sara": 5602,
      "Ġexplos": 5603,
      "rich": 5604,
      "ients": 5605,
      "Ġleadership": 5606,
      "Ġcommittee": 5607,
      "ĠCard": 5608,
      "Ġrequest": 5609,
      "ns": 5610,
      "ĠRepublican": 5611,
      "Ġcalls": 5612,
      "Ġ178": 5613,
      "Ġsort": 5614,
      "aming": 5615,
      "Ġletters": 5616,
      "Ġtank": 5617,
      "ipl": 5618,
      "Ġ1986": 5619,
      "Ġamazing": 5620,
      "onent": 5621,
      "stream": 5622,
      "lee": 5623,
      "Ġauthorities": 5624,
      "cks": 5625,
      "Ġchor": 5626,
      "Ġdescribes": 5627,
      "Ġpush": 5628,
      "Ġ800": 5629,
      "ĠBoard": 5630,
      "imal": 5631,
      "Ġash": 5632,
      "tar": 5633,
      "amin": 5634,
      "Ġglob": 5635,
      "Following": 5636,
      "Wow": 5637,
      "BA": 5638,
      "Ġgenus": 5639,
      "Ġhuge": 5640,
      "Ġlion": 5641,
      "Timmy": 5642,
      "ĠSub": 5643,
      "Ġmine": 5644,
      "Ġdrama": 5645,
      "Ġblow": 5646,
      "ico": 5647,
      "Ġthrew": 5648,
      "Ġseventh": 5649,
      "Ġneck": 5650,
      "Ġteacher": 5651,
      "Ġ1939": 5652,
      "Ġislands": 5653,
      "ĠTommy": 5654,
      "Ġrecently": 5655,
      "inth": 5656,
      "Ġlic": 5657,
      "Ġrise": 5658,
      "Ġcomedy": 5659,
      "uate": 5660,
      "Ġplane": 5661,
      "Ġdemand": 5662,
      "ĠIsrael": 5663,
      "Ġ66": 5664,
      "Ġsharp": 5665,
      "Ġhousehold": 5666,
      "uls": 5667,
      "Ġpowers": 5668,
      "Sam": 5669,
      "Ġyounger": 5670,
      "ĠHind": 5671,
      "Ġflat": 5672,
      "Ġtim": 5673,
      "Ġsimple": 5674,
      "Ġshowing": 5675,
      "illing": 5676,
      "Ġheadquarters": 5677,
      "Ġcontrolled": 5678,
      "intendo": 5679,
      "Ġmanagement": 5680,
      "Ġpiano": 5681,
      "ĠCub": 5682,
      "Ġtypes": 5683,
      "Ġheight": 5684,
      "va": 5685,
      "Ġstrange": 5686,
      "Ġupgr": 5687,
      "Ġbattalion": 5688,
      "ĠDoctor": 5689,
      "oday": 5690,
      "Ġshooting": 5691,
      "ĠMu": 5692,
      "ĠMir": 5693,
      "Ġhang": 5694,
      "ashion": 5695,
      "oln": 5696,
      "Ġcommonly": 5697,
      "ĠInstitute": 5698,
      "Ġdecre": 5699,
      "Ġapplic": 5700,
      "Ġhopped": 5701,
      "ĠAsh": 5702,
      "Ġ120": 5703,
      "ĠVen": 5704,
      "Ġ61": 5705,
      "Ġcarrying": 5706,
      "Ġadvert": 5707,
      "Ġdial": 5708,
      "Ġmissing": 5709,
      "Ġcrown": 5710,
      "body": 5711,
      "Ġanyone": 5712,
      "zil": 5713,
      "ĠBru": 5714,
      "Ġdrove": 5715,
      "ĠArthur": 5716,
      "wich": 5717,
      "Ġfirm": 5718,
      "Ġnuclear": 5719,
      "verse": 5720,
      "hol": 5721,
      "ĠSecretary": 5722,
      "Ġvac": 5723,
      "Ġheads": 5724,
      "Ġtouchdown": 5725,
      "Ġentirely": 5726,
      "Ġacad": 5727,
      "adelph": 5728,
      "rect": 5729,
      "har": 5730,
      "ĠNintendo": 5731,
      "Ġsecurity": 5732,
      "iations": 5733,
      "ĠBul": 5734,
      "Ġwithdraw": 5735,
      "ĠRevolution": 5736,
      "Ġsets": 5737,
      "Ġkiss": 5738,
      "Ġvan": 5739,
      "ĠCy": 5740,
      "uman": 5741,
      "Ġjoy": 5742,
      "ĠFer": 5743,
      "Ġadvantage": 5744,
      "Ġarrival": 5745,
      "Ġperforming": 5746,
      "Ġflooding": 5747,
      "ighted": 5748,
      "ba": 5749,
      "struction": 5750,
      "Ġpointed": 5751,
      "Ġrelie": 5752,
      "Ġarticle": 5753,
      "ĠWW": 5754,
      "ĠHome": 5755,
      "Ġprotected": 5756,
      "Ġconvers": 5757,
      "Ġsac": 5758,
      "iverpool": 5759,
      "roll": 5760,
      "Ġones": 5761,
      "Ġthank": 5762,
      "water": 5763,
      "ĠUl": 5764,
      "ĠPhiladelph": 5765,
      "Ġcontributed": 5766,
      "ĠOhio": 5767,
      "agan": 5768,
      "Ġven": 5769,
      "Ġwatching": 5770,
      "ĠJer": 5771,
      "ĠSally": 5772,
      "ĠWild": 5773,
      "Ġaccompanied": 5774,
      "Ġpurchased": 5775,
      "ĠLes": 5776,
      "ĠDet": 5777,
      "ĠSound": 5778,
      "Ġexisting": 5779,
      "apped": 5780,
      "Ġstream": 5781,
      "Ġbottom": 5782,
      "Ġdefensive": 5783,
      "Ġ1968": 5784,
      "Ġdefence": 5785,
      "Ġcontaining": 5786,
      "ĠGall": 5787,
      "Ġmissed": 5788,
      "Ġsymbol": 5789,
      "Ġcamera": 5790,
      "Ġgain": 5791,
      "ulate": 5792,
      "Ġrecognized": 5793,
      "ĠLive": 5794,
      "itled": 5795,
      "Ġatmosp": 5796,
      "ĠPu": 5797,
      "Ġcultural": 5798,
      "Ġextrem": 5799,
      "Ġillust": 5800,
      "Ġflo": 5801,
      "Ġreflect": 5802,
      "Ġrules": 5803,
      "ĠOf": 5804,
      "Ġdrawn": 5805,
      "uan": 5806,
      "essed": 5807,
      "ĠRussia": 5808,
      "Ġmagic": 5809,
      "gn": 5810,
      "Ġresemb": 5811,
      "Ġintensity": 5812,
      "ĠPhiladelphia": 5813,
      "Ġprovides": 5814,
      "Ġoccupied": 5815,
      "Ġmotion": 5816,
      "Ġham": 5817,
      "ĠFurther": 5818,
      "Ġorchest": 5819,
      "arn": 5820,
      "Ġscheduled": 5821,
      "ĠGeorgia": 5822,
      "ipe": 5823,
      "Ġlap": 5824,
      "20": 5825,
      "Ġfocused": 5826,
      "Ġceremony": 5827,
      "With": 5828,
      "istics": 5829,
      "Ġways": 5830,
      "Station": 5831,
      "Ġru": 5832,
      "Ġcream": 5833,
      "ĠPrime": 5834,
      "eck": 5835,
      "Ġtries": 5836,
      "Ġsupporting": 5837,
      "ĠJewish": 5838,
      "ĠLar": 5839,
      "Ġlocations": 5840,
      "Ġmounted": 5841,
      "Ġnote": 5842,
      "Ġdecor": 5843,
      "Ġmuseum": 5844,
      "ĠCD": 5845,
      "ĠSup": 5846,
      "Ġrated": 5847,
      "Ġtitles": 5848,
      "Ġheaded": 5849,
      "hell": 5850,
      "Ġshore": 5851,
      "Ġbass": 5852,
      "Ġrecru": 5853,
      "rell": 5854,
      "iences": 5855,
      "fully": 5856,
      "ĠKorean": 5857,
      "osa": 5858,
      "Ġopportunity": 5859,
      "inity": 5860,
      "Ġ57": 5861,
      "Ġexpedition": 5862,
      "ĠColumbia": 5863,
      "ĠLinc": 5864,
      "Ġexerc": 5865,
      "ĠPeople": 5866,
      "ĠHit": 5867,
      "Ġdeck": 5868,
      "Ġfinding": 5869,
      "ĠMah": 5870,
      "His": 5871,
      "Ġstood": 5872,
      "wall": 5873,
      "rons": 5874,
      "oma": 5875,
      "Ġexperienced": 5876,
      "Ġprepared": 5877,
      "ĠPlayStation": 5878,
      "Ġdelicious": 5879,
      "ĠÎ": 5880,
      "uts": 5881,
      "eld": 5882,
      "ĠLisa": 5883,
      "Ġgraph": 5884,
      "Ġunl": 5885,
      "entle": 5886,
      "ĠNever": 5887,
      "Ġ1985": 5888,
      "Ġphilos": 5889,
      "ware": 5890,
      "Ġprotection": 5891,
      "Ġfeels": 5892,
      "\".": 5893,
      "Ġaid": 5894,
      "Ġrac": 5895,
      "Ġdedicated": 5896,
      "ĠProt": 5897,
      "respond": 5898,
      "atures": 5899,
      "ewhere": 5900,
      "ĠFrancisco": 5901,
      "time": 5902,
      "Ġsession": 5903,
      "agement": 5904,
      "Ġreceiving": 5905,
      "Ġdriver": 5906,
      "ii": 5907,
      "Ġstrengthen": 5908,
      "Ġuncle": 5909,
      "Ġwoods": 5910,
      "Ġinvited": 5911,
      "ĠAlbum": 5912,
      "zen": 5913,
      "ĠLiverpool": 5914,
      "ĠCommon": 5915,
      "ĠArg": 5916,
      "ĠTam": 5917,
      "ĠAsia": 5918,
      "Ġ1967": 5919,
      "oured": 5920,
      "rupt": 5921,
      "Ġcollected": 5922,
      "Ġcomic": 5923,
      "Ġpitch": 5924,
      "Ġcenturies": 5925,
      "ĠGermans": 5926,
      "zant": 5927,
      "ĠSR": 5928,
      "Ġconsists": 5929,
      "Ġapproached": 5930,
      "ava": 5931,
      "Ġsoutheast": 5932,
      "Ġcontest": 5933,
      "Ġlabor": 5934,
      "Ġelimin": 5935,
      "Ġindustrial": 5936,
      "una": 5937,
      "Ġproviding": 5938,
      "Ġvisual": 5939,
      "ora": 5940,
      "Ġyes": 5941,
      "Ġsailed": 5942,
      "Ġeasily": 5943,
      "iter": 5944,
      "Ġ1984": 5945,
      "Ġgiant": 5946,
      "ĠFe": 5947,
      "ĠBalt": 5948,
      "Ġpros": 5949,
      "Ġsubmar": 5950,
      "Ġengaged": 5951,
      "ĠDisney": 5952,
      "ilton": 5953,
      "ĠJean": 5954,
      "Ġthemes": 5955,
      "Ġregions": 5956,
      "ĠLincoln": 5957,
      "OK": 5958,
      "Ġviewed": 5959,
      "Ġrapidly": 5960,
      "Ġhide": 5961,
      "Ġsteel": 5962,
      "Ġcitizens": 5963,
      "aked": 5964,
      "ĠSteve": 5965,
      "ira": 5966,
      "Ġskin": 5967,
      "Ġtemperature": 5968,
      "Ġexact": 5969,
      "nee": 5970,
      "ĠBroad": 5971,
      "Ġstructures": 5972,
      "ĠCambridge": 5973,
      "ĠByzant": 5974,
      "yles": 5975,
      "Ġsafety": 5976,
      "ĠThrough": 5977,
      "Ġturning": 5978,
      "Ġstadium": 5979,
      "Ġresident": 5980,
      "Jack": 5981,
      "Ġrepair": 5982,
      "Ġmut": 5983,
      "ĠCommand": 5984,
      "ĠCarey": 5985,
      "yer": 5986,
      "ĠDark": 5987,
      "Ġ58": 5988,
      "Ġ74": 5989,
      "ĠBrazil": 5990,
      "Ġocean": 5991,
      "Ġsport": 5992,
      "Ġhired": 5993,
      "ĠBad": 5994,
      "Ġ1918": 5995,
      "Ġspark": 5996,
      "ĠHun": 5997,
      "ĠKa": 5998,
      "Ġmerch": 5999,
      "eral": 6000,
      "Ġfacilities": 6001,
      "Ġintersection": 6002,
      "rets": 6003,
      "Ġ1914": 6004,
      "actions": 6005,
      "iration": 6006,
      "usc": 6007,
      "Ġconference": 6008,
      "Ġmoder": 6009,
      "mouth": 6010,
      "Ã¸": 6011,
      "Ġpoem": 6012,
      "ĠHay": 6013,
      "ogether": 6014,
      "ĠEmperor": 6015,
      "Ġscholars": 6016,
      "ĠBenny": 6017,
      "iform": 6018,
      "ĠChart": 6019,
      "ĠOffice": 6020,
      "Ġsell": 6021,
      "oom": 6022,
      "ĠPot": 6023,
      "ĠGulf": 6024,
      "Ġcorrespond": 6025,
      "ĠStorm": 6026,
      "Ġdeveloping": 6027,
      "Ġcurrently": 6028,
      "Ġvolume": 6029,
      "FA": 6030,
      "Ġfine": 6031,
      "Ġnotable": 6032,
      "Ġadult": 6033,
      "Ġcasualties": 6034,
      "Ġfrag": 6035,
      "ĠShort": 6036,
      "Ġcloth": 6037,
      "Ġbaseball": 6038,
      "Ġmessage": 6039,
      "iler": 6040,
      "ĠConference": 6041,
      "Ġadding": 6042,
      "ĠBrook": 6043,
      "ĠUs": 6044,
      "aving": 6045,
      "ĠWars": 6046,
      "Ġevening": 6047,
      "Ġplease": 6048,
      "irrel": 6049,
      "Ar": 6050,
      "Ġunusual": 6051,
      "ĠSerb": 6052,
      "Be": 6053,
      "ĠGil": 6054,
      "Ġfashion": 6055,
      "ĠTropical": 6056,
      "Ġbattery": 6057,
      "ĠAnderson": 6058,
      "Ġsignificantly": 6059,
      "Ġtight": 6060,
      "Ġbands": 6061,
      "Ġeconomy": 6062,
      "ĠBurn": 6063,
      "Ġsucceeded": 6064,
      "Ġ1969": 6065,
      "Ġsubstant": 6066,
      "Ġinhab": 6067,
      "awa": 6068,
      "Ġapproved": 6069,
      "Ġtransform": 6070,
      "Ġ1964": 6071,
      "Ġselection": 6072,
      "essor": 6073,
      "Ġinvolve": 6074,
      "heim": 6075,
      "ĠNHL": 6076,
      "Ġclimbed": 6077,
      "Ġcoin": 6078,
      "Ġhyp": 6079,
      "Ġknowledge": 6080,
      "etts": 6081,
      "Ġprote": 6082,
      "Ġlosses": 6083,
      "ĠOlympic": 6084,
      "roc": 6085,
      "Ġcharts": 6086,
      "Ġmount": 6087,
      "ĠShak": 6088,
      "ĠMiller": 6089,
      "ĠDemocratic": 6090,
      "Ġgameplay": 6091,
      "ĠOrigin": 6092,
      "eman": 6093,
      "Ġwitness": 6094,
      "Ġurban": 6095,
      "Ġroughly": 6096,
      "Ġshaped": 6097,
      "ĠAlso": 6098,
      "mann": 6099,
      "friend": 6100,
      "ua": 6101,
      "ologist": 6102,
      "ĠRailway": 6103,
      "Ġdomestic": 6104,
      "Ġenl": 6105,
      "Ġburied": 6106,
      "met": 6107,
      "arr": 6108,
      "Ġdefined": 6109,
      "theless": 6110,
      "Ġopinion": 6111,
      "ĠTurn": 6112,
      "Ġeating": 6113,
      "Ġunsuccess": 6114,
      "Ġpoll": 6115,
      "ĠProv": 6116,
      "Ġsites": 6117,
      "Ġsouthwest": 6118,
      "oncÃ©": 6119,
      "Ġlanded": 6120,
      "istol": 6121,
      "Ġdriving": 6122,
      "Ġsecondary": 6123,
      "Ġinjured": 6124,
      "ĠKim": 6125,
      "aste": 6126,
      "ĠRol": 6127,
      "ĠJun": 6128,
      "Ġfranchise": 6129,
      "ĠEarl": 6130,
      "Ġdigital": 6131,
      "ĠDie": 6132,
      "Ġmyth": 6133,
      "Ġbelief": 6134,
      "sey": 6135,
      "ĠMot": 6136,
      "ĠBas": 6137,
      "ĠLewis": 6138,
      "Ġrich": 6139,
      "burgh": 6140,
      "Ġ1983": 6141,
      "ĠGrant": 6142,
      "ĠHollywood": 6143,
      "Ġ1966": 6144,
      "ĠJr": 6145,
      "Ġdescend": 6146,
      "Ġdaily": 6147,
      "Ġhits": 6148,
      "ĠMusl": 6149,
      "ĠDaisy": 6150,
      "Ġstoryline": 6151,
      "Ġ1971": 6152,
      "Ġpublication": 6153,
      "hens": 6154,
      "ipping": 6155,
      "ano": 6156,
      "rif": 6157,
      "Ġassault": 6158,
      "Ġreplace": 6159,
      "Ġwrest": 6160,
      "Ġsquad": 6161,
      "Ġsang": 6162,
      "Ġ1972": 6163,
      "Ġ250": 6164,
      "Ġconnected": 6165,
      "Ġ99": 6166,
      "Ġduck": 6167,
      "ĠLieutenant": 6168,
      "Ġstarts": 6169,
      "Ġ59": 6170,
      "unte": 6171,
      "Ġawards": 6172,
      "Ġmedic": 6173,
      "standing": 6174,
      "Ġrebu": 6175,
      "ĠPre": 6176,
      "Ġreasons": 6177,
      "ropri": 6178,
      "Ġshut": 6179,
      "Ġton": 6180,
      "Ġpopularity": 6181,
      "Ġdeclined": 6182,
      "Ġinteresting": 6183,
      "ĠUN": 6184,
      "Ġ1982": 6185,
      "Ġallows": 6186,
      "Ġshall": 6187,
      "Ġrank": 6188,
      "Ġemployed": 6189,
      "Ġperhaps": 6190,
      "Ġisol": 6191,
      "ĠWho": 6192,
      "Ġtechnology": 6193,
      "ĠBrian": 6194,
      "Ġactress": 6195,
      "eness": 6196,
      "hus": 6197,
      "Ġ73": 6198,
      "Ġ63": 6199,
      "Ġkingdom": 6200,
      "ĠAddition": 6201,
      "Ġshr": 6202,
      "Ġvon": 6203,
      "Ġundert": 6204,
      "ĠDaily": 6205,
      "Ġcore": 6206,
      "ĠRome": 6207,
      "Ġveget": 6208,
      "Ġsemi": 6209,
      "Ġdisappear": 6210,
      "ordin": 6211,
      "Ġincreasingly": 6212,
      "add": 6213,
      "ĠHo": 6214,
      "avig": 6215,
      "ults": 6216,
      "ĠConn": 6217,
      "Ġreading": 6218,
      "Ġitems": 6219,
      "Ġyouth": 6220,
      "Ġ1965": 6221,
      "Ġresistance": 6222,
      "ĠSyd": 6223,
      "ĠUpon": 6224,
      "ĠFam": 6225,
      "Ġagricult": 6226,
      "Ġresponded": 6227,
      "Ġrenamed": 6228,
      "Ġscientific": 6229,
      "apore": 6230,
      "Ġ62": 6231,
      "Ġtend": 6232,
      "Ġfox": 6233,
      "ĠRose": 6234,
      "Ġrhy": 6235,
      "ĠHead": 6236,
      "Ġplanning": 6237,
      "Ġseems": 6238,
      "ĠGib": 6239,
      "itors": 6240,
      "ĠSix": 6241,
      "ĠChap": 6242,
      "ĠNaz": 6243,
      "Ġreputation": 6244,
      "ĠWalter": 6245,
      "aser": 6246,
      "Ġ77": 6247,
      "Ġvolcan": 6248,
      "Ġanalysis": 6249,
      "ĠBank": 6250,
      "Ã¡n": 6251,
      "ĠWater": 6252,
      "Ġdistingu": 6253,
      "Ġ1979": 6254,
      "ographic": 6255,
      "FL": 6256,
      "break": 6257,
      "Ġho": 6258,
      "ĠHere": 6259,
      "Ġsquirrel": 6260,
      "Ġscary": 6261,
      "Ġdepth": 6262,
      "Sp": 6263,
      "ĠGro": 6264,
      "onym": 6265,
      "Ġconverted": 6266,
      "bound": 6267,
      "Ġsick": 6268,
      "amm": 6269,
      "awn": 6270,
      "ĠBa": 6271,
      "achus": 6272,
      "Ġestate": 6273,
      "ĠAbb": 6274,
      "Ġalternative": 6275,
      "ĠMos": 6276,
      "ĠDavis": 6277,
      "Ġnor": 6278,
      "Ġeggs": 6279,
      "Ġlegs": 6280,
      "Ġshop": 6281,
      "ours": 6282,
      "ĠBarb": 6283,
      "ĠChild": 6284,
      "ĠOnce": 6285,
      "Ġ1975": 6286,
      "Ġrestaur": 6287,
      "ographer": 6288,
      "Ġregarding": 6289,
      "Ġnick": 6290,
      "Ġsustained": 6291,
      "worth": 6292,
      "Ġcrossed": 6293,
      "Ġrecon": 6294,
      "ĠInstead": 6295,
      "Then": 6296,
      "ĠSingapore": 6297,
      "ĠBeyoncÃ©": 6298,
      "Ġce": 6299,
      "ĠNorway": 6300,
      "ĠNap": 6301,
      "Ġsuddenly": 6302,
      "yph": 6303,
      "Ġsupplies": 6304,
      "kes": 6305,
      "Ġstages": 6306,
      "Ġcited": 6307,
      "engers": 6308,
      "Ġliterature": 6309,
      "rence": 6310,
      "Ġhotel": 6311,
      "ĠPoint": 6312,
      "ĠEp": 6313,
      "wise": 6314,
      "Ġworried": 6315,
      "Ġreaction": 6316,
      "Ġentrance": 6317,
      "Ġcalc": 6318,
      "Ġweakened": 6319,
      "ĠSupreme": 6320,
      "ador": 6321,
      "vis": 6322,
      "lan": 6323,
      "ĠSand": 6324,
      "Ġprojects": 6325,
      "Ġ1974": 6326,
      "lav": 6327,
      "Ġagent": 6328,
      "Ġoccas": 6329,
      "Ġarc": 6330,
      "ĠSummer": 6331,
      "ĠGord": 6332,
      "Ġopera": 6333,
      "Ġlistened": 6334,
      "Ġexistence": 6335,
      "Ġarranged": 6336,
      "aka": 6337,
      "Ġmonster": 6338,
      "ĠKentucky": 6339,
      "ĠFall": 6340,
      "Ġconsequ": 6341,
      "Ġkid": 6342,
      "ĠHMS": 6343,
      "ĠSoon": 6344,
      "Ġdesigns": 6345,
      "Ġcustom": 6346,
      "Ġplate": 6347,
      "Ġviews": 6348,
      "Ġconstitution": 6349,
      "Ġpage": 6350,
      "Ġlasted": 6351,
      "Ġ1973": 6352,
      "Ġapart": 6353,
      "Ġoperating": 6354,
      "Ġlandfall": 6355,
      "Ġcells": 6356,
      "reets": 6357,
      "Ġintroduction": 6358,
      "Ġautom": 6359,
      "Ġemerg": 6360,
      "Ġexchange": 6361,
      "Ġstudied": 6362,
      "omic": 6363,
      "Ġ700": 6364,
      "psons": 6365,
      "Ġdelivered": 6366,
      "Ġ72": 6367,
      "Hello": 6368,
      "Ġequal": 6369,
      "Ġupset": 6370,
      "Ġteeth": 6371,
      "Ġretire": 6372,
      "Ġ160": 6373,
      "Ġwaited": 6374,
      "Ġ1917": 6375,
      "Ġ68": 6376,
      "Ġmagical": 6377,
      "rett": 6378,
      "Ġmedal": 6379,
      "Ġsecure": 6380,
      "ĠVol": 6381,
      "ĠSimpsons": 6382,
      "achusetts": 6383,
      "ignment": 6384,
      "Ġneeds": 6385,
      "iat": 6386,
      "ĠWrit": 6387,
      "Ġpin": 6388,
      "ĠLady": 6389,
      "athan": 6390,
      "Ġtied": 6391,
      "Ġpersonnel": 6392,
      "Ġwish": 6393,
      "ĠBal": 6394,
      "ĠOnly": 6395,
      "Ġtorn": 6396,
      "Ġrocks": 6397,
      "ĠRadio": 6398,
      "Ġmodels": 6399,
      "Ġfreeway": 6400,
      "Ġearliest": 6401,
      "Ġbowl": 6402,
      "uration": 6403,
      "ĠKey": 6404,
      "Ġsitting": 6405,
      "ĠBell": 6406,
      "Ġproceed": 6407,
      "Ġauth": 6408,
      "Ġapplied": 6409,
      "mitted": 6410,
      "ĠProd": 6411,
      "Ġ67": 6412,
      "ĠMassachusetts": 6413,
      "ĠIV": 6414,
      "unicip": 6415,
      "ĠAmong": 6416,
      "ĠCrit": 6417,
      "Ġwrites": 6418,
      "Ġproducing": 6419,
      "atre": 6420,
      "ĠKir": 6421,
      "ĠSpring": 6422,
      "ader": 6423,
      "Ġunivers": 6424,
      "Ġlimit": 6425,
      "Ġcoastal": 6426,
      "Ġcredited": 6427,
      "Ġparties": 6428,
      "Ġaer": 6429,
      "otic": 6430,
      "Ġretained": 6431,
      "Ġjoint": 6432,
      "Ġgradually": 6433,
      "Ġgenre": 6434,
      "ĠPhilipp": 6435,
      "istan": 6436,
      "Ġinstall": 6437,
      "Ġflu": 6438,
      "Ġimpl": 6439,
      "Ġvirt": 6440,
      "ĠMas": 6441,
      "Ġhumans": 6442,
      "ĠEle": 6443,
      "ĠToday": 6444,
      "ĠFair": 6445,
      "Ġ1946": 6446,
      "ym": 6447,
      "ĠIndust": 6448,
      "Ġ1976": 6449,
      "Ġblank": 6450,
      "ules": 6451,
      "Ġaware": 6452,
      "ĠYour": 6453,
      "Ġquestions": 6454,
      "Ġ97": 6455,
      "Ġscul": 6456,
      "Ġsettlement": 6457,
      "eler": 6458,
      "ĠRoss": 6459,
      "Ġbigger": 6460,
      "Ġathlet": 6461,
      "Ġneut": 6462,
      "Ġconsc": 6463,
      "ĠDue": 6464,
      "ĠStation": 6465,
      "Ġappoint": 6466,
      "ĠTa": 6467,
      "Ġmaintain": 6468,
      "ighters": 6469,
      "Ġacres": 6470,
      "Ġalle": 6471,
      "Ġsmooth": 6472,
      "insula": 6473,
      "Ġdiscover": 6474,
      "Ġprisoners": 6475,
      "Ġcinem": 6476,
      "ĠWhit": 6477,
      "rig": 6478,
      "Ġerr": 6479,
      "ilding": 6480,
      "oli": 6481,
      "Ġprice": 6482,
      "Ġresour": 6483,
      "Ġ1915": 6484,
      "Ġ96": 6485,
      "Ġrub": 6486,
      "ati": 6487,
      "gers": 6488,
      "Ġspotted": 6489,
      "onia": 6490,
      "ĠLab": 6491,
      "Ġimportance": 6492,
      "ĠOb": 6493,
      "Ġgets": 6494,
      "Ġstatement": 6495,
      "Ġago": 6496,
      "Ġ69": 6497,
      "Ġtele": 6498,
      "Ġprograms": 6499,
      "Ġmail": 6500,
      "ĠBern": 6501,
      "ĠSpecial": 6502,
      "Ġtaught": 6503,
      "ĠVar": 6504,
      "ĠGolden": 6505,
      "According": 6506,
      "ko": 6507,
      "Ġpool": 6508,
      "ĠJay": 6509,
      "Ġviolence": 6510,
      "Ġtask": 6511,
      "ĠCape": 6512,
      "ĠSydney": 6513,
      "GN": 6514,
      "Ġrelief": 6515,
      "ĠOlympics": 6516,
      "ĠColonel": 6517,
      "ĠImperial": 6518,
      "Ġthinks": 6519,
      "ĠAirport": 6520,
      "Ġcreative": 6521,
      "ĠRon": 6522,
      "Ġknots": 6523,
      "Ġexclus": 6524,
      "ĠVietnam": 6525,
      "ĠOttoman": 6526,
      "ĠHart": 6527,
      "iants": 6528,
      "ĠMeanwhile": 6529,
      "ĠSel": 6530,
      "ĠPoland": 6531,
      "Ġsettled": 6532,
      "ĠBall": 6533,
      "Ġloyal": 6534,
      "Ġcandidate": 6535,
      "bow": 6536,
      "Ġextremely": 6537,
      "Ġreserve": 6538,
      "Ġeasy": 6539,
      "Ġindependence": 6540,
      "Ġinterested": 6541,
      "Ġregister": 6542,
      "Ġtransp": 6543,
      "ĠElect": 6544,
      "Ġpatrol": 6545,
      "aws": 6546,
      "Ġsections": 6547,
      "ĠBase": 6548,
      "ĠWhe": 6549,
      "Ġhungry": 6550,
      "tical": 6551,
      "Ġrose": 6552,
      "Ġtowns": 6553,
      "Ġindicated": 6554,
      "Ġaddress": 6555,
      "Ġcombination": 6556,
      "Ġtact": 6557,
      "ivalent": 6558,
      "ĠNick": 6559,
      "emies": 6560,
      "Ġengines": 6561,
      "eless": 6562,
      "ĠMaria": 6563,
      "Ġ1948": 6564,
      "oir": 6565,
      "achel": 6566,
      "Ġ87": 6567,
      "ĠDream": 6568,
      "ĠMTV": 6569,
      "Ġdecade": 6570,
      "Ġmap": 6571,
      "Å¡": 6572,
      "ĠAtt": 6573,
      "Ġ78": 6574,
      "ĠJour": 6575,
      "ĠNaval": 6576,
      "state": 6577,
      "Ġoverl": 6578,
      "ĠTony": 6579,
      "Ġthreatened": 6580,
      "Ġregiment": 6581,
      "ifications": 6582,
      "Ġchallenge": 6583,
      "ĠLeg": 6584,
      "ĠAndy": 6585,
      "Ġstepped": 6586,
      "Ġacts": 6587,
      "Ġ1981": 6588,
      "egr": 6589,
      "arted": 6590,
      "'ll": 6591,
      "issance": 6592,
      "ocket": 6593,
      "Ġmole": 6594,
      "Ġdepend": 6595,
      "Ġbot": 6596,
      "ĠPict": 6597,
      "Ġswimming": 6598,
      "hat": 6599,
      "ĠJes": 6600,
      "Ġbreat": 6601,
      "ĠAD": 6602,
      "Ġgentle": 6603,
      "Ġtemple": 6604,
      "Ġruled": 6605,
      "Ġplayoff": 6606,
      "ĠSongs": 6607,
      "Ġ91": 6608,
      "Ġattached": 6609,
      "Ġben": 6610,
      "osis": 6611,
      "Ġcampus": 6612,
      "Ġdeaths": 6613,
      "Ġentitled": 6614,
      "ĠMulder": 6615,
      "dd": 6616,
      "Ġrecommended": 6617,
      "ĠConfeder": 6618,
      "Ġ94": 6619,
      "ĠIndepend": 6620,
      "Ġvent": 6621,
      "Ġmales": 6622,
      "Ġpromotion": 6623,
      "Ġonline": 6624,
      "Ġsurvived": 6625,
      "akers": 6626,
      "ĠStew": 6627,
      "Ġbirthday": 6628,
      "ĠSher": 6629,
      "ĠWalk": 6630,
      "Ġalt": 6631,
      "Ġ1916": 6632,
      "ĠFinally": 6633,
      "Ġconsum": 6634,
      "okes": 6635,
      "Ġwinner": 6636,
      "ĠOrder": 6637,
      "ĠPublic": 6638,
      "ĠBos": 6639,
      "AT": 6640,
      "Ġfields": 6641,
      "iy": 6642,
      "Ġspecifically": 6643,
      "Ġtanks": 6644,
      "ĠNet": 6645,
      "Ġcomfort": 6646,
      "Ġadmitted": 6647,
      "Ġarrested": 6648,
      "Ġspoke": 6649,
      "Ġdetails": 6650,
      "rate": 6651,
      "Ġreduce": 6652,
      "ĠPrem": 6653,
      "ĠUTC": 6654,
      "orporation": 6655,
      "bro": 6656,
      "Ġcapable": 6657,
      "Ġprovinc": 6658,
      "riff": 6659,
      "Ġproposal": 6660,
      "Ġ1919": 6661,
      "Ġbreeding": 6662,
      "iege": 6663,
      "izations": 6664,
      "Ġwouldn": 6665,
      "Ġselect": 6666,
      "Ġsufficient": 6667,
      "Ġlb": 6668,
      "Ġrecalled": 6669,
      "Ġsupposed": 6670,
      "rophy": 6671,
      "Ġcrash": 6672,
      "Ġsmart": 6673,
      "Ġreligion": 6674,
      "Ġconqu": 6675,
      "Ġbrain": 6676,
      "AR": 6677,
      "Ġmeters": 6678,
      "ĠMaryland": 6679,
      "Ġpainted": 6680,
      "Ġobjects": 6681,
      "ĠMcG": 6682,
      "entially": 6683,
      "Ġfict": 6684,
      "Ġcauses": 6685,
      "Ġvoted": 6686,
      "ĠMoore": 6687,
      "oh": 6688,
      "Ġ1963": 6689,
      "Ġmir": 6690,
      "know": 6691,
      "erted": 6692,
      "Ġbiggest": 6693,
      "Ġrevolution": 6694,
      "Ġcharged": 6695,
      "iques": 6696,
      "ropol": 6697,
      "Ġimplement": 6698,
      "Ġoffers": 6699,
      "Ġduty": 6700,
      "Ġinvestigation": 6701,
      "Ġ1978": 6702,
      "Ġwed": 6703,
      "Ġcoins": 6704,
      "ĠSunday": 6705,
      "ĠWell": 6706,
      "Ġconvoy": 6707,
      "ervative": 6708,
      "Ġtrouble": 6709,
      "Ġlibrary": 6710,
      "Ġmud": 6711,
      "ĠAC": 6712,
      "Ġretreat": 6713,
      "bourne": 6714,
      "Ġportrayed": 6715,
      "Ġcomposition": 6716,
      "ĠArts": 6717,
      "Ġ98": 6718,
      "Ġorange": 6719,
      "Ġremainder": 6720,
      "Ġentry": 6721,
      "Ġ130": 6722,
      "Ġassistant": 6723,
      "ĠOffic": 6724,
      "osite": 6725,
      "ĠRhodes": 6726,
      "Ġpolitics": 6727,
      "Ġpuppy": 6728,
      "Ġ71": 6729,
      "Ġinternal": 6730,
      "vest": 6731,
      "Ġimpressed": 6732,
      "bell": 6733,
      "Ġspons": 6734,
      "ĠStand": 6735,
      "Ġactual": 6736,
      "iller": 6737,
      "Ġinstalled": 6738,
      "Ġwore": 6739,
      "anger": 6740,
      "ĠMaybe": 6741,
      "put": 6742,
      "Ġrefle": 6743,
      "Ġequipped": 6744,
      "Ġ81": 6745,
      "wick": 6746,
      "Ġ1938": 6747,
      "Ġsynt": 6748,
      "ÅĤ": 6749,
      "Ġmort": 6750,
      "ĠInc": 6751,
      "Ġoverse": 6752,
      "Ġimages": 6753,
      "Ġfeather": 6754,
      "Ġ1977": 6755,
      "ito": 6756,
      "Ġtie": 6757,
      "ĠTheatre": 6758,
      "inois": 6759,
      "Ġpromote": 6760,
      "espread": 6761,
      "aints": 6762,
      "ucing": 6763,
      "osaurus": 6764,
      "ras": 6765,
      "Ġconcerns": 6766,
      "mes": 6767,
      "iversary": 6768,
      "Ġsolid": 6769,
      "Ġconsiderable": 6770,
      "olph": 6771,
      "Ġpreced": 6772,
      "Ġfemales": 6773,
      "BS": 6774,
      "ĠBon": 6775,
      "Ġbringing": 6776,
      "ĠGreg": 6777,
      "Ġ#": 6778,
      "ja": 6779,
      "Ġrural": 6780,
      "senal": 6781,
      "anean": 6782,
      "after": 6783,
      "ĠMountain": 6784,
      "ĠDown": 6785,
      "ĠJimmy": 6786,
      "ĠBowl": 6787,
      "ĠLila": 6788,
      "ĠPlan": 6789,
      "Ġnomination": 6790,
      "Ġsilly": 6791,
      "aki": 6792,
      "Ġrooms": 6793,
      "Ġfunds": 6794,
      "oons": 6795,
      "ieval": 6796,
      "Ġunderst": 6797,
      "ĠKat": 6798,
      "ĠStaff": 6799,
      "Ġtypical": 6800,
      "ĠStadium": 6801,
      "ĠConstant": 6802,
      "Ġzone": 6803,
      "ĠAri": 6804,
      "Ġprincipal": 6805,
      "bar": 6806,
      "Ġlose": 6807,
      "Ġdrawing": 6808,
      "Ġeighth": 6809,
      "Ġphone": 6810,
      "Ġdecades": 6811,
      "Ġconsisting": 6812,
      "ĠGordon": 6813,
      "Ġcrime": 6814,
      "itage": 6815,
      "Ġstock": 6816,
      "Ġ1962": 6817,
      "ĠFire": 6818,
      "ĠBeach": 6819,
      "Ġraise": 6820,
      "Ġgrandma": 6821,
      "Ġproducts": 6822,
      "Ġlink": 6823,
      "ela": 6824,
      "Ġpolic": 6825,
      "Ġ89": 6826,
      "Ġlearning": 6827,
      "ĠEarly": 6828,
      "Ġmilit": 6829,
      "Ġsole": 6830,
      "Ġmanner": 6831,
      "Ġphase": 6832,
      "For": 6833,
      "Ġgift": 6834,
      "ĠRa": 6835,
      "ĠAdam": 6836,
      "Ġduties": 6837,
      "Ġseek": 6838,
      "Ġwaiting": 6839,
      "Ġlane": 6840,
      "idges": 6841,
      "Ġgrounds": 6842,
      "ĠPass": 6843,
      "Ġ82": 6844,
      "Ġbrigade": 6845,
      "Ġwarning": 6846,
      "load": 6847,
      "Ġgall": 6848,
      "Ġmonkey": 6849,
      "Ġpermanent": 6850,
      "ordan": 6851,
      "Äģ": 6852,
      "ctions": 6853,
      "ĠAbout": 6854,
      "Ġpoly": 6855,
      "Ġentering": 6856,
      "Ġbasketball": 6857,
      "Ġroutes": 6858,
      "Ġnoting": 6859,
      "ĠâĪ": 6860,
      "alty": 6861,
      "Ġconcerned": 6862,
      "Ġnone": 6863,
      "Ġstuck": 6864,
      "Ġ88": 6865,
      "ĠNic": 6866,
      "ansas": 6867,
      "Ġwaves": 6868,
      "Ġpurchase": 6869,
      "Ġintegr": 6870,
      "Ġstring": 6871,
      "Ġdragon": 6872,
      "ĠPle": 6873,
      "rete": 6874,
      "ĠVill": 6875,
      "nedy": 6876,
      "rin": 6877,
      "Ġoccurs": 6878,
      "Ġinvolving": 6879,
      "Ġholds": 6880,
      "Ġsubs": 6881,
      "Ġdepartment": 6882,
      "ĠMain": 6883,
      "ĠBir": 6884,
      "Ġposted": 6885,
      "BI": 6886,
      "ĠIGN": 6887,
      "Ġenemies": 6888,
      "Ġsupporters": 6889,
      "Ġcong": 6890,
      "Ġdaddy": 6891,
      "Ġ175": 6892,
      "Ġcomposer": 6893,
      "aug": 6894,
      "ĠWomen": 6895,
      "hetic": 6896,
      "ĠPear": 6897,
      "ĠKong": 6898,
      "ĠNorwe": 6899,
      "Ġfaith": 6900,
      "opher": 6901,
      "Ġextension": 6902,
      "Ġdescribing": 6903,
      "Ġamazed": 6904,
      "ĠAlf": 6905,
      "ĠAge": 6906,
      "Ġfalling": 6907,
      "ĠIndones": 6908,
      "Ġvessels": 6909,
      "Ġ1936": 6910,
      "Ġaspects": 6911,
      "Ġdated": 6912,
      "Ġbreaking": 6913,
      "ĠVII": 6914,
      "Ġprincess": 6915,
      "ĠForest": 6916,
      "Ġacid": 6917,
      "Ġairport": 6918,
      "ĠEmma": 6919,
      "ĠScully": 6920,
      "Ġconnection": 6921,
      "Ġboys": 6922,
      "Ġ79": 6923,
      "Ġcertified": 6924,
      "yphoon": 6925,
      "ĠNether": 6926,
      "Ġseeing": 6927,
      "Ġfixed": 6928,
      "Ġwidespread": 6929,
      "Ġdates": 6930,
      "ilation": 6931,
      "ĠBand": 6932,
      "Ġdisappoin": 6933,
      "Ġsculpt": 6934,
      "ĠMoon": 6935,
      "oard": 6936,
      "Ġarmor": 6937,
      "Ġincome": 6938,
      "Ġwheel": 6939,
      "Ġvehicle": 6940,
      "ĠCur": 6941,
      "ĠCirc": 6942,
      "Ġmoves": 6943,
      "Ġdebate": 6944,
      "Ġequivalent": 6945,
      "Ġparallel": 6946,
      "lets": 6947,
      "Ġspeaking": 6948,
      "Ġexpand": 6949,
      "Ġ1956": 6950,
      "iley": 6951,
      "ca": 6952,
      "ĠCra": 6953,
      "ateful": 6954,
      "elson": 6955,
      "Ġdeleg": 6956,
      "ĠJustice": 6957,
      "Ġheat": 6958,
      "icit": 6959,
      "Ġoldest": 6960,
      "ĠSimon": 6961,
      "ĠKennedy": 6962,
      "etime": 6963,
      "Ġexpensive": 6964,
      "Ġassumed": 6965,
      "Ġreturns": 6966,
      "ĠGram": 6967,
      "ĠDougl": 6968,
      "Ġnose": 6969,
      "Ġpassengers": 6970,
      "ĠAdams": 6971,
      "ĠHamilton": 6972,
      "Ġparliament": 6973,
      "Ġaccused": 6974,
      "Ġbasic": 6975,
      "ĠAnth": 6976,
      "Ġclasses": 6977,
      "Ġidentity": 6978,
      "ĠMcK": 6979,
      "agonist": 6980,
      "ĠPortug": 6981,
      "Ġterminus": 6982,
      "Ġmode": 6983,
      "erto": 6984,
      "ĠTurk": 6985,
      "Ġpuzz": 6986,
      "Ġcontroversy": 6987,
      "Ġfreedom": 6988,
      "Ġdenied": 6989,
      "Ġdistribution": 6990,
      "hr": 6991,
      "Ġvir": 6992,
      "ĠAssembly": 6993,
      "Ġobtained": 6994,
      "oz": 6995,
      "Ġformal": 6996,
      "Ġempt": 6997,
      "Ġsurrounded": 6998,
      "Ġaccur": 6999,
      "Ġacknow": 7000,
      "Ġ110": 7001,
      "Ġfarmer": 7002,
      "emed": 7003,
      "iterr": 7004,
      "Ġbelt": 7005,
      "Ġet": 7006,
      "ĠHon": 7007,
      "mun": 7008,
      "Ġthirty": 7009,
      "Ġaftern": 7010,
      "Ġsatisf": 7011,
      "Ġthousands": 7012,
      "Ġsmiles": 7013,
      "Ġcommitted": 7014,
      "Ġcrimin": 7015,
      "Ġemerged": 7016,
      "Ġmemory": 7017,
      "Ġsessions": 7018,
      "Ġsurvey": 7019,
      "Ġpopulations": 7020,
      "Ġasking": 7021,
      "Ġeleph": 7022,
      "ova": 7023,
      "Ġacclaim": 7024,
      "encies": 7025,
      "ĠAlan": 7026,
      "Ġfrust": 7027,
      "Ġbegun": 7028,
      "Ġshots": 7029,
      "western": 7030,
      "Ġdeparture": 7031,
      "Ġcoat": 7032,
      "veland": 7033,
      "Ġgirls": 7034,
      "Ġcirculation": 7035,
      "aware": 7036,
      "Ġfairy": 7037,
      "Ġmarch": 7038,
      "Ġwickets": 7039,
      "Ġremix": 7040,
      "Ġopposite": 7041,
      "Ġrescue": 7042,
      "Ġec": 7043,
      "ensus": 7044,
      "Ġhanded": 7045,
      "Ġjudge": 7046,
      "Ġfoss": 7047,
      "Ġliterary": 7048,
      "AAF": 7049,
      "Ġintelligence": 7050,
      "ta": 7051,
      "Ġaf": 7052,
      "ommod": 7053,
      "ĠHou": 7054,
      "Ġcircum": 7055,
      "Ġaccidentally": 7056,
      "heastern": 7057,
      "Ġadap": 7058,
      "Ġgrown": 7059,
      "Ġdiscovery": 7060,
      "Ġrelieved": 7061,
      "Ġca": 7062,
      "Ġcookies": 7063,
      "ĠId": 7064,
      "Ġhosted": 7065,
      "agle": 7066,
      "Ġcharges": 7067,
      "Ġstrip": 7068,
      "ĠCart": 7069,
      "ĠHitler": 7070,
      "Ġ1953": 7071,
      "Ġfolk": 7072,
      "Ġdecline": 7073,
      "Ġ1961": 7074,
      "ione": 7075,
      "agre": 7076,
      "atinum": 7077,
      "Ġsequel": 7078,
      "Ġ1937": 7079,
      "Ġderived": 7080,
      "ĠRyan": 7081,
      "Ġevolution": 7082,
      "Ġfalls": 7083,
      "ortion": 7084,
      "Ġpossibility": 7085,
      "Ġfinishing": 7086,
      "Ġtransition": 7087,
      "Ġcosts": 7088,
      "Ġsegment": 7089,
      "iterranean": 7090,
      "organ": 7091,
      "Ġweapon": 7092,
      "Ġflash": 7093,
      "agues": 7094,
      "ici": 7095,
      "Ġeverywhere": 7096,
      "Ġcommit": 7097,
      "Ġ84": 7098,
      "ingly": 7099,
      "Ġstrongly": 7100,
      "Ġtalking": 7101,
      "ĠMediterranean": 7102,
      "Ġdowntown": 7103,
      "Ġ1947": 7104,
      "ician": 7105,
      "ĠNorwegian": 7106,
      "ĠYank": 7107,
      "rogen": 7108,
      "ĠHoward": 7109,
      "ĠEric": 7110,
      "Ġassistance": 7111,
      "Ġintention": 7112,
      "ĠMarc": 7113,
      "aret": 7114,
      "Ġminister": 7115,
      "Ġhip": 7116,
      "Ġanimated": 7117,
      "ĠMagazine": 7118,
      "bled": 7119,
      "Ġexception": 7120,
      "Ġdestruction": 7121,
      "regon": 7122,
      "thm": 7123,
      "Ġregional": 7124,
      "ih": 7125,
      "ĠBry": 7126,
      "Ġ93": 7127,
      "ĠColl": 7128,
      "ophy": 7129,
      "Ġdriven": 7130,
      "ĠWeekly": 7131,
      "ĠRolling": 7132,
      "Ġchampion": 7133,
      "risis": 7134,
      "Ġ1910": 7135,
      "ĠDirector": 7136,
      "heme": 7137,
      "Ġpromise": 7138,
      "ĠIndiana": 7139,
      "ĠNBA": 7140,
      "wan": 7141,
      "Ġmissions": 7142,
      "Ġmad": 7143,
      "Ġgeneration": 7144,
      "Ġtheatre": 7145,
      "ĠJill": 7146,
      "Ġrecovered": 7147,
      "Ġneither": 7148,
      "Ġmaterials": 7149,
      "Ġenthus": 7150,
      "Ġreplacement": 7151,
      "ĠArgent": 7152,
      "Ġseparated": 7153,
      "inder": 7154,
      "Ġincorporated": 7155,
      "lig": 7156,
      "Ġvolunte": 7157,
      "ĠGill": 7158,
      "Ġfictional": 7159,
      "Ġafternoon": 7160,
      "Ġsaved": 7161,
      "Ġregularly": 7162,
      "ĠUr": 7163,
      "ĠBeatles": 7164,
      "Ġforget": 7165,
      "Ġrestored": 7166,
      "Ġbike": 7167,
      "Ġdoesn": 7168,
      "Ġencouraged": 7169,
      "Ġresponsibility": 7170,
      "ĠJordan": 7171,
      "ugg": 7172,
      "Ġbalance": 7173,
      "AC": 7174,
      "Ġdemol": 7175,
      "Ġcommanded": 7176,
      "Ġcavalry": 7177,
      "Ġpatient": 7178,
      "Ġdissip": 7179,
      "Ġprey": 7180,
      "Ġrequested": 7181,
      "Ġpersu": 7182,
      "ĠSav": 7183,
      "ĠMemorial": 7184,
      "ĠConstitution": 7185,
      "Ġoccasionally": 7186,
      "Ġmemorial": 7187,
      "Ġtouc": 7188,
      "Ġ1958": 7189,
      "Ġbehavior": 7190,
      "ĠIra": 7191,
      "ĠOk": 7192,
      "osh": 7193,
      "ĠâĢĿ": 7194,
      "Ġserves": 7195,
      "Ġeffectively": 7196,
      "Ġalleged": 7197,
      "ĠPier": 7198,
      "Ġcolorful": 7199,
      "Ġsons": 7200,
      "velopment": 7201,
      "Ġpredec": 7202,
      "Ġattracted": 7203,
      "ĠStanley": 7204,
      "Ġchain": 7205,
      "ĠMexican": 7206,
      "Ġchorus": 7207,
      "Ġatmosphere": 7208,
      "Ġstrateg": 7209,
      "Ġclassic": 7210,
      "ĠâĪĴ": 7211,
      "Ġveter": 7212,
      "ĠSingles": 7213,
      "ĠChannel": 7214,
      "Ġouter": 7215,
      "borne": 7216,
      "Ġattributed": 7217,
      "ĠIllinois": 7218,
      "Ġexpect": 7219,
      "ĠPower": 7220,
      "Ġelder": 7221,
      "Ġestablishment": 7222,
      "riers": 7223,
      "never": 7224,
      "ĠOregon": 7225,
      "enses": 7226,
      "Ġremark": 7227,
      "ĠDouglas": 7228,
      "ĠRun": 7229,
      "Ġrecognition": 7230,
      "Ġ86": 7231,
      "ĠLeon": 7232,
      "Ġprovince": 7233,
      "Ġ1957": 7234,
      "Ġreception": 7235,
      "ompl": 7236,
      "Ġdifferences": 7237,
      "Ġbattleships": 7238,
      "Ġadvice": 7239,
      "elsh": 7240,
      "Ġdelayed": 7241,
      "Ġvary": 7242,
      "ategy": 7243,
      "Ġaboard": 7244,
      "ami": 7245,
      "Ġgate": 7246,
      "Ġcompletion": 7247,
      "eing": 7248,
      "Ġtechnical": 7249,
      "ĠAz": 7250,
      "ĠEngine": 7251,
      "sole": 7252,
      "Ġdesire": 7253,
      "Ġcorrect": 7254,
      "ĠTreat": 7255,
      "Ġaccommod": 7256,
      "Ġshif": 7257,
      "hedral": 7258,
      "ĠCleveland": 7259,
      "Ġeleven": 7260,
      "Ġcourts": 7261,
      "works": 7262,
      "Ġfil": 7263,
      "ĠProg": 7264,
      "Ġclubs": 7265,
      "ĠFreder": 7266,
      "Ġlad": 7267,
      "Ġsurviving": 7268,
      "Ġhidden": 7269,
      "ĠKevin": 7270,
      "abled": 7271,
      "Ġpassage": 7272,
      "Ġbusy": 7273,
      "Ġreinforce": 7274,
      "Ġhal": 7275,
      "Ġ1955": 7276,
      "Ġreality": 7277,
      "Ġwindows": 7278,
      "Ġdifficulty": 7279,
      "Ġtelling": 7280,
      "IA": 7281,
      "Ġentertain": 7282,
      "ĠOw": 7283,
      "ĠSpace": 7284,
      "ĠBristol": 7285,
      "host": 7286,
      "ĠâĢľ": 7287,
      "Ġrum": 7288,
      "ĠGun": 7289,
      "ĠFederal": 7290,
      "Ġclassified": 7291,
      "Ġlon": 7292,
      "ĠPress": 7293,
      "Ġmovements": 7294,
      "inced": 7295,
      "ache": 7296,
      "isms": 7297,
      "ĠKorea": 7298,
      "ĠAnne": 7299,
      "May": 7300,
      "Ġaccompl": 7301,
      "ĠBruce": 7302,
      "Ġinjuries": 7303,
      "Ġdancing": 7304,
      "Ġglobal": 7305,
      "Ġcrop": 7306,
      "Ġ1959": 7307,
      "ĠRain": 7308,
      "Ġquant": 7309,
      "Ġassociation": 7310,
      "Ġanswer": 7311,
      "Ġcra": 7312,
      "Ġancest": 7313,
      "Ġoutbreak": 7314,
      "Ġsoul": 7315,
      "ĠBetween": 7316,
      "Ġdie": 7317,
      "uting": 7318,
      "ĠSab": 7319,
      "iders": 7320,
      "char": 7321,
      "oslav": 7322,
      "Ġratings": 7323,
      "Ġadventures": 7324,
      "ĠPur": 7325,
      "ĠFA": 7326,
      "Ġ1954": 7327,
      "Ġballoon": 7328,
      "Ġgreatly": 7329,
      "ĠAst": 7330,
      "Ġgrateful": 7331,
      "ĠInside": 7332,
      "Ġteen": 7333,
      "Ġmethods": 7334,
      "Ġdivisions": 7335,
      "Ġstands": 7336,
      "ĠVideo": 7337,
      "ivals": 7338,
      "Ġscr": 7339,
      "Ġtag": 7340,
      "Ġtruth": 7341,
      "Ġvide": 7342,
      "Ġscre": 7343,
      "teenth": 7344,
      "Ġrelative": 7345,
      "Ġchemical": 7346,
      "ĠRoger": 7347,
      "night": 7348,
      "Ġille": 7349,
      "Ġhistorians": 7350,
      "Ġstreets": 7351,
      "ĠCE": 7352,
      "Ġapprec": 7353,
      "Ġconvinced": 7354,
      "ĠEs": 7355,
      "ĠReview": 7356,
      "ĠMorgan": 7357,
      "Ġauthors": 7358,
      "ĠLow": 7359,
      "Oh": 7360,
      "Ġwelcome": 7361,
      "ĠRel": 7362,
      "Ġastron": 7363,
      "Ġclaiming": 7364,
      "fted": 7365,
      "ĠLanc": 7366,
      "ĠFeder": 7367,
      "Ġpraise": 7368,
      "Ġpremiere": 7369,
      "Ġax": 7370,
      "nold": 7371,
      "Ġbite": 7372,
      "ĠScience": 7373,
      "Ġcommunities": 7374,
      "Ġment": 7375,
      "ĠDave": 7376,
      "Ġcrosses": 7377,
      "ĠDog": 7378,
      "Ġgray": 7379,
      "ĠBush": 7380,
      "Ġworst": 7381,
      "Ġpure": 7382,
      "ĠByzantine": 7383,
      "Max": 7384,
      "ĠPit": 7385,
      "ĠAdditionally": 7386,
      "inton": 7387,
      "Ġfled": 7388,
      "ĠPhilip": 7389,
      "Ġfestival": 7390,
      "Ġdirty": 7391,
      "Ġtunnel": 7392,
      "ĠHawai": 7393,
      "ĠNorman": 7394,
      "aire": 7395,
      "Ġswe": 7396,
      "Ġotherwise": 7397,
      "Ġmusicians": 7398,
      "nings": 7399,
      "ĠSky": 7400,
      "Ġdipl": 7401,
      "ĠDri": 7402,
      "Ġdoct": 7403,
      "ĠPhill": 7404,
      "Ġbatting": 7405,
      "Ġfal": 7406,
      "ĠBah": 7407,
      "Ġskills": 7408,
      "nce": 7409,
      "ĠWWE": 7410,
      "ĠColor": 7411,
      "ĠFound": 7412,
      "Ġgathered": 7413,
      "Ġsale": 7414,
      "ĠRow": 7415,
      "Ġdens": 7416,
      "Ġproperties": 7417,
      "Ġcruiser": 7418,
      "Ġbuck": 7419,
      "ĠWelsh": 7420,
      "ĠBack": 7421,
      "Ġscar": 7422,
      "Ġpartner": 7423,
      "ĠArsenal": 7424,
      "Ġvotes": 7425,
      "Ġgrant": 7426,
      "orough": 7427,
      "Ġprogramme": 7428,
      "Ġforming": 7429,
      "Ġmassive": 7430,
      "RA": 7431,
      "Ġ83": 7432,
      "aza": 7433,
      "Ġ1933": 7434,
      "Ġfunding": 7435,
      "ez": 7436,
      "Ġsight": 7437,
      "Ġadults": 7438,
      "icop": 7439,
      "oyd": 7440,
      "Ġuniform": 7441,
      "emeter": 7442,
      "Ġassemb": 7443,
      "ĠSweden": 7444,
      "ĠJacob": 7445,
      "ban": 7446,
      "ĠCab": 7447,
      "Ġoutf": 7448,
      "power": 7449,
      "ewhat": 7450,
      "Ġpocket": 7451,
      "uty": 7452,
      "Ġaccounts": 7453,
      "Ġfold": 7454,
      "Ġalien": 7455,
      "Ã³n": 7456,
      "Bob": 7457,
      "ĠHug": 7458,
      "Ġneighbour": 7459,
      "Ġfaces": 7460,
      "ĠNich": 7461,
      "Ġremn": 7462,
      "Ġlat": 7463,
      "ĠNations": 7464,
      "ĠJews": 7465,
      "Ġdismissed": 7466,
      "ĠJam": 7467,
      "ilers": 7468,
      "anth": 7469,
      "Ġinspiration": 7470,
      "Ġdetermine": 7471,
      "Ġboss": 7472,
      "ĠRaj": 7473,
      "ĠInit": 7474,
      "ĠAnton": 7475,
      "Ġclimate": 7476,
      "Ġpenalty": 7477,
      "ĠTar": 7478,
      "onto": 7479,
      "Ġ1952": 7480,
      "Ġbell": 7481,
      "Ġinner": 7482,
      "Ġafterwards": 7483,
      "Ġshells": 7484,
      "ĠNetherlands": 7485,
      "Ġdepict": 7486,
      "ĠAk": 7487,
      "Ġtemporary": 7488,
      "ructure": 7489,
      "Ġobser": 7490,
      "ĠRem": 7491,
      "umin": 7492,
      "ĠRobinson": 7493,
      "Ġ92": 7494,
      "going": 7495,
      "anches": 7496,
      "ĠProject": 7497,
      "Ġbombard": 7498,
      "ji": 7499,
      "Ġteddy": 7500,
      "ounced": 7501,
      "uable": 7502,
      "Ġstable": 7503,
      "ĠDE": 7504,
      "Ġcheck": 7505,
      "ventually": 7506,
      "Ġreviewer": 7507,
      "ĠNelson": 7508,
      "ĠDean": 7509,
      "Ġsuffering": 7510,
      "Ġensure": 7511,
      "Ġsomewhat": 7512,
      "Ġcandy": 7513,
      "Ġcul": 7514,
      "ĠEver": 7515,
      "Ġ1951": 7516,
      "Ġstrategy": 7517,
      "Ġleads": 7518,
      "iva": 7519,
      "Ġimmediate": 7520,
      "ĠTemple": 7521,
      "ilty": 7522,
      "ĠFrancis": 7523,
      "Ġ176": 7524,
      "ĠResearch": 7525,
      "Ġmeets": 7526,
      "Ġowners": 7527,
      "Ġped": 7528,
      "icate": 7529,
      "Ġdispl": 7530,
      "Ġinterpret": 7531,
      "Ġcave": 7532,
      "oles": 7533,
      "omot": 7534,
      "Ġwooden": 7535,
      "Ġinvolvement": 7536,
      "usted": 7537,
      "Ġ1935": 7538,
      "ĠPatrick": 7539,
      "icken": 7540,
      "ĠMorris": 7541,
      "real": 7542,
      "Ġthrone": 7543,
      "ĠSax": 7544,
      "Ġconvection": 7545,
      "Ġabsor": 7546,
      "Ġraces": 7547,
      "Ġanniversary": 7548,
      "ĠJohnny": 7549,
      "Ġbench": 7550,
      "ĠIraq": 7551,
      "Ġchest": 7552,
      "Ġcrying": 7553,
      "ĠCroatian": 7554,
      "Ġlegend": 7555,
      "Ġpassenger": 7556,
      "ĠSanta": 7557,
      "Ġpill": 7558,
      "Ġemergency": 7559,
      "ĠRet": 7560,
      "ĠFive": 7561,
      "attered": 7562,
      "iner": 7563,
      "ĠFord": 7564,
      "Ġsink": 7565,
      "itable": 7566,
      "Ġcategory": 7567,
      "Ġtreasure": 7568,
      "Ġsurviv": 7569,
      "ompson": 7570,
      "Ġresources": 7571,
      "Ġappropri": 7572,
      "Ġattacking": 7573,
      "Ġbrand": 7574,
      "oked": 7575,
      "roph": 7576,
      "ĠWork": 7577,
      "Ġappearing": 7578,
      "Ġninth": 7579,
      "imp": 7580,
      "Ġscheme": 7581,
      "Ġtas": 7582,
      "Ġphotograph": 7583,
      "raid": 7584,
      "Ġinterests": 7585,
      "ĠArmen": 7586,
      "Ġclassical": 7587,
      "don": 7588,
      "Ġclassification": 7589,
      "Ġmedieval": 7590,
      "Ġkeeping": 7591,
      "Ġcolonial": 7592,
      "ĠShortly": 7593,
      "Ġfighter": 7594,
      "Ġlunch": 7595,
      "ogy": 7596,
      "Ġsuperior": 7597,
      "Ġfitted": 7598,
      "Ġvisible": 7599,
      "ĠWrest": 7600,
      "Ġdeemed": 7601,
      "Ġcolony": 7602,
      "Ġ1949": 7603,
      "ĠToronto": 7604,
      "Ġtiny": 7605,
      "Ġconclusion": 7606,
      "bec": 7607,
      "Ġacademic": 7608,
      "ĠMarg": 7609,
      "ĠThird": 7610,
      "ĠPuerto": 7611,
      "Ġdub": 7612,
      "ĠNC": 7613,
      "Ġchalleng": 7614,
      "ĠDick": 7615,
      "Ġbes": 7616,
      "Ġbelieves": 7617,
      "Ġori": 7618,
      "Ġinterior": 7619,
      "ĠMaster": 7620,
      "icide": 7621,
      "Ġsear": 7622,
      "Ġabsence": 7623,
      "Ġuniverse": 7624,
      "Ġpremiered": 7625,
      "ĠNiel": 7626,
      "ossible": 7627,
      "Ġconvent": 7628,
      "Ġtechniques": 7629,
      "Ġcow": 7630,
      "Ġdifference": 7631,
      "ali": 7632,
      "Ġhappen": 7633,
      "Ġstarred": 7634,
      "Ġoperate": 7635,
      "Ġvalley": 7636,
      "Ġsam": 7637,
      "Ġmargin": 7638,
      "lie": 7639,
      "Ġagree": 7640,
      "Ġsecured": 7641,
      "Ġgra": 7642,
      "Ġtemperatures": 7643,
      "wealth": 7644,
      "acter": 7645,
      "Ġdolls": 7646,
      "ĠPremier": 7647,
      "oen": 7648,
      "ĠCas": 7649,
      "Ġcarbon": 7650,
      "Ġromantic": 7651,
      "Ġbond": 7652,
      "ogen": 7653,
      "Ġrenew": 7654,
      "Ġchoose": 7655,
      "itzer": 7656,
      "ĠMolly": 7657,
      "ĠLenn": 7658,
      "Ġarchitecture": 7659,
      "Ġcontroversial": 7660,
      "ece": 7661,
      "Ġdating": 7662,
      "ĠPow": 7663,
      "Ġexciting": 7664,
      "Ġlies": 7665,
      "Ġcontinuing": 7666,
      "vens": 7667,
      "acent": 7668,
      "Ġunderstood": 7669,
      "Ġbone": 7670,
      "Ġtwins": 7671,
      "ĠAllen": 7672,
      "ĠHungarian": 7673,
      "ĠTs": 7674,
      "ĠWeb": 7675,
      "Ġhorn": 7676,
      "ĠTransport": 7677,
      "Ġsongwrit": 7678,
      "Ġsubmarine": 7679,
      "Ġspending": 7680,
      "Ġfacility": 7681,
      "Ġnotice": 7682,
      "Ġlandsc": 7683,
      "Ġpartn": 7684,
      "ĠFinn": 7685,
      "Ġgraphics": 7686,
      "Ġconsp": 7687,
      "Ġattempting": 7688,
      "Ġwins": 7689,
      "ĠBan": 7690,
      "Ġmyster": 7691,
      "Ġcredit": 7692,
      "Sh": 7693,
      "Ġtub": 7694,
      "ania": 7695,
      "ĠIslam": 7696,
      "Ġlying": 7697,
      "elle": 7698,
      "á»": 7699,
      "iliar": 7700,
      "Ġsack": 7701,
      "ĠIron": 7702,
      "Ġray": 7703,
      "Ġclouds": 7704,
      "Ġmoon": 7705,
      "ĠMarine": 7706,
      "Ġdominated": 7707,
      "Ġmunicip": 7708,
      "atically": 7709,
      "Ġ1900": 7710,
      "ĠMars": 7711,
      "ĠScient": 7712,
      "Ġpermission": 7713,
      "Ġexploring": 7714,
      "Ġdocumentary": 7715,
      "ĠDomin": 7716,
      "Ġspend": 7717,
      "Ġlongest": 7718,
      "Ġpretend": 7719,
      "Ġthinking": 7720,
      "Ġdiscussed": 7721,
      "Ġreferences": 7722,
      "Ġdistributed": 7723,
      "Ġsed": 7724,
      "ĠCarter": 7725,
      "Ġdepicted": 7726,
      "Ġmarry": 7727,
      "oster": 7728,
      "Ġsoil": 7729,
      "Ġremove": 7730,
      "Ġinformed": 7731,
      "chang": 7732,
      "ivan": 7733,
      "Ġdanc": 7734,
      "ĠMatthew": 7735,
      "ĠHoly": 7736,
      "Ġstandards": 7737,
      "Ġlock": 7738,
      "Ġmonarch": 7739,
      "Ġpound": 7740,
      "ĠBishop": 7741,
      "coming": 7742,
      "Ġchairman": 7743,
      "Ġunsuccessful": 7744,
      "ĠDor": 7745,
      "Ġrush": 7746,
      "Ġsan": 7747,
      "ĠNob": 7748,
      "ĠCentre": 7749,
      "Ġarchae": 7750,
      "Ġmilk": 7751,
      "Ġhockey": 7752,
      "ĠKelly": 7753,
      "Ġtrained": 7754,
      "Ġadaptation": 7755,
      "idd": 7756,
      "Ġobserv": 7757,
      "Despite": 7758,
      "lines": 7759,
      "ĠInt": 7760,
      "ultane": 7761,
      "Ġgal": 7762,
      "using": 7763,
      "Ġnap": 7764,
      "Ġshapes": 7765,
      "Ġnickn": 7766,
      "Ġfence": 7767,
      "urches": 7768,
      "ĠHend": 7769,
      "weight": 7770,
      "ixon": 7771,
      "Ġrailroad": 7772,
      "vy": 7773,
      "ocal": 7774,
      "Ġgarrison": 7775,
      "Ġuseful": 7776,
      "Ġlegislation": 7777,
      "ture": 7778,
      "Ġmodified": 7779,
      "ĠRussell": 7780,
      "Ġshoes": 7781,
      "itter": 7782,
      "osure": 7783,
      "ĠGlob": 7784,
      "eor": 7785,
      "Ġrestaurant": 7786,
      "ĠFame": 7787,
      "ĠThompson": 7788,
      "orney": 7789,
      "Ġelections": 7790,
      "Ã±": 7791,
      "pon": 7792,
      "Ġcryst": 7793,
      "aria": 7794,
      "lyn": 7795,
      "ĠCommonwealth": 7796,
      "Ġacknowled": 7797,
      "Ġgenerated": 7798,
      "Ġfishing": 7799,
      "ĠImp": 7800,
      "Ġprint": 7801,
      "Ġcarrier": 7802,
      "Ġ1927": 7803,
      "ĠProf": 7804,
      "Ġempty": 7805,
      "Ġbats": 7806,
      "ĠGen": 7807,
      "Ġexperiences": 7808,
      "Ġgrade": 7809,
      "Ġknee": 7810,
      "Ġcommemor": 7811,
      "apping": 7812,
      "Ġhoney": 7813,
      "Ġdeployed": 7814,
      "ĠThus": 7815,
      "Ġ1926": 7816,
      "Ġpresidential": 7817,
      "Ġtreated": 7818,
      "ĠLabor": 7819,
      "Ġload": 7820,
      "ĠDNA": 7821,
      "ĠOak": 7822,
      "Ġemotional": 7823,
      "Ġstatue": 7824,
      "Ġmeasures": 7825,
      "ĠAgain": 7826,
      "ĠNFL": 7827,
      "Ġrepresenting": 7828,
      "hanna": 7829,
      "ĠWy": 7830,
      "Ġ900": 7831,
      "ext": 7832,
      "ti": 7833,
      "Ġcode": 7834,
      "rapped": 7835,
      "ĠMrs": 7836,
      "ĠJournal": 7837,
      "ĠDig": 7838,
      "Ġspan": 7839,
      "Ġhelicop": 7840,
      "Ġnarrative": 7841,
      "ĠBang": 7842,
      "Ġmoderate": 7843,
      "Ġconvention": 7844,
      "Ġdisturb": 7845,
      "ĠBrother": 7846,
      "Ġprevented": 7847,
      "ĠCooper": 7848,
      "ĠJess": 7849,
      "ĠAI": 7850,
      "Ġsuccessor": 7851,
      "Ġstretch": 7852,
      "Ġbridges": 7853,
      "bles": 7854,
      "Ġinfluential": 7855,
      "Ġneighborhood": 7856,
      "Ġ1913": 7857,
      "Ġ1921": 7858,
      "Ġunion": 7859,
      "ennis": 7860,
      "Ġhistoric": 7861,
      "ĠGard": 7862,
      "Ġknocked": 7863,
      "ĠIndians": 7864,
      "Ġhearing": 7865,
      "ĠBou": 7866,
      "apse": 7867,
      "book": 7868,
      "opes": 7869,
      "Ġnovels": 7870,
      "iac": 7871,
      "Ġdecide": 7872,
      "Ġtaste": 7873,
      "ĠTal": 7874,
      "Ġexcess": 7875,
      "Ġhunting": 7876,
      "chers": 7877,
      "Ġ1912": 7878,
      "ĠTrib": 7879,
      "ugoslav": 7880,
      "Ġbadly": 7881,
      "ĠMilitary": 7882,
      "ĠPalace": 7883,
      "Ġpump": 7884,
      "Ġhundreds": 7885,
      "Ġseats": 7886,
      "rad": 7887,
      "Ġsiege": 7888,
      "Ġdogs": 7889,
      "roit": 7890,
      "ĠBelg": 7891,
      "Ġretirement": 7892,
      "ĠNBC": 7893,
      "Ġdepos": 7894,
      "ĠNar": 7895,
      "Ġinstruments": 7896,
      "Ġpregn": 7897,
      "Ġmoments": 7898,
      "Ġdefended": 7899,
      "ester": 7900,
      "mate": 7901,
      "uv": 7902,
      "ĠPak": 7903,
      "Ġalleg": 7904,
      "fire": 7905,
      "ĠBerlin": 7906,
      "tenance": 7907,
      "ĠHouston": 7908,
      "Ġqueen": 7909,
      "eenth": 7910,
      "tic": 7911,
      "uther": 7912,
      "ĠHospital": 7913,
      "ĠDaddy": 7914,
      "Ġpup": 7915,
      "rait": 7916,
      "agu": 7917,
      "Ġconfused": 7918,
      "ĠCommander": 7919,
      "Ġrender": 7920,
      "Ġapparently": 7921,
      "Ġ1934": 7922,
      "Ġtrials": 7923,
      "Ġenvironmental": 7924,
      "Ġexecuted": 7925,
      "Ġshield": 7926,
      "ĠWinter": 7927,
      "isen": 7928,
      "Ġcancer": 7929,
      "ĠPA": 7930,
      "ĠTok": 7931,
      "ĠCorporation": 7932,
      "ĠFront": 7933,
      "ĠHarris": 7934,
      "Ġgay": 7935,
      "Ġformerly": 7936,
      "usic": 7937,
      "Ġfacing": 7938,
      "ĠRi": 7939,
      "ĠRAAF": 7940,
      "Ġenters": 7941,
      "Ġ1932": 7942,
      "Maybe": 7943,
      "Ġleaf": 7944,
      "Ġchildhood": 7945,
      "Ġpreferred": 7946,
      "Ġstem": 7947,
      "attle": 7948,
      "sters": 7949,
      "onies": 7950,
      "ĠBab": 7951,
      "Ġthereafter": 7952,
      "iens": 7953,
      "Ġalco": 7954,
      "Ġenh": 7955,
      "ĠSimp": 7956,
      "Ġconstruct": 7957,
      "Ġstuff": 7958,
      "appy": 7959,
      "Ġreveals": 7960,
      "Ġvisitors": 7961,
      "Ġjournalist": 7962,
      "ĠSwedish": 7963,
      "Ġridge": 7964,
      "ĠGaga": 7965,
      "Ġresigned": 7966,
      "Ġtraveled": 7967,
      "Ġintense": 7968,
      "Ġbrill": 7969,
      "ĠYugoslav": 7970,
      "Ġoffices": 7971,
      "ĠMedia": 7972,
      "uster": 7973,
      "Ġmolec": 7974,
      "And": 7975,
      "Ġstyles": 7976,
      "orous": 7977,
      "ĠWright": 7978,
      "Ġkit": 7979,
      "Ġmaint": 7980,
      "Ġfer": 7981,
      "ĠPC": 7982,
      "ĠParker": 7983,
      "Ġnavig": 7984,
      "ĠGet": 7985,
      "owa": 7986,
      "Ġpurple": 7987,
      "emetery": 7988,
      "ĠXbox": 7989,
      "Ġassass": 7990,
      "Ġdiplom": 7991,
      "oking": 7992,
      "ĠSpe": 7993,
      "Ġvictims": 7994,
      "ĠNielsen": 7995,
      "Ġfeelings": 7996,
      "imore": 7997,
      "ĠBure": 7998,
      "ĠMurray": 7999,
      "ĠCharlie": 8000,
      "Ġic": 8001,
      "igration": 8002,
      "Ġfill": 8003,
      "ĠAdvent": 8004,
      "Ġ140": 8005,
      "ĠCook": 8006,
      "ĠConc": 8007,
      "Ġsynthes": 8008,
      "Ġarrangement": 8009,
      "bl": 8010,
      "ĠPolice": 8011,
      "ĠTogether": 8012,
      "ĠCategory": 8013,
      "Ġthousand": 8014,
      "ĠSimpson": 8015,
      "pet": 8016,
      "Ġavo": 8017,
      "Ġskull": 8018,
      "boy": 8019,
      "Ġconcur": 8020,
      "Ġforever": 8021,
      "Ġfootage": 8022,
      "Ġteaching": 8023,
      "Ġwealthy": 8024,
      "fish": 8025,
      "Ġanimation": 8026,
      "Ġchapter": 8027,
      "rees": 8028,
      "prise": 8029,
      "Ġblanket": 8030,
      "Ġfiring": 8031,
      "ĠAth": 8032,
      "ĠCroatia": 8033,
      "ĠNetwork": 8034,
      "ĠTechn": 8035,
      "Ġemployees": 8036,
      "Ġvision": 8037,
      "ternal": 8038,
      "aska": 8039,
      "hroom": 8040,
      "jo": 8041,
      "Ġguilty": 8042,
      "Ġreportedly": 8043,
      "fare": 8044,
      "stances": 8045,
      "Ġintent": 8046,
      "Ġhealthy": 8047,
      "Ġformally": 8048,
      "burn": 8049,
      "ĠWarner": 8050,
      "otype": 8051,
      "Ġnotably": 8052,
      "Ġdeparted": 8053,
      "alo": 8054,
      "unes": 8055,
      "Ġformat": 8056,
      "Ġparticipate": 8057,
      "Ġunderstanding": 8058,
      "Ġdialogue": 8059,
      "Ġadapted": 8060,
      "Ġconstant": 8061,
      "Ġairl": 8062,
      "ĠBatman": 8063,
      "Ġweekend": 8064,
      "Ġfactors": 8065,
      "Ġdevice": 8066,
      "Ġbattleship": 8067,
      "achment": 8068,
      "Ġchannel": 8069,
      "Ġbranches": 8070,
      "Ġaccompany": 8071,
      "Ġmicro": 8072,
      "ĠCry": 8073,
      "Ġreviewers": 8074,
      "Ġexposed": 8075,
      "Ġencountered": 8076,
      "Ġinstance": 8077,
      "Ġopponents": 8078,
      "uro": 8079,
      "Ġowl": 8080,
      "ĠPrincess": 8081,
      "Ġcruisers": 8082,
      "ĠAsian": 8083,
      "Ġ06": 8084,
      "ĠUSS": 8085,
      "icial": 8086,
      "ĠSpears": 8087,
      "Ġ1922": 8088,
      "Ġmathem": 8089,
      "ygen": 8090,
      "Ġresign": 8091,
      "Ġvul": 8092,
      "Ġexisted": 8093,
      "Ġcycle": 8094,
      "ĠDetroit": 8095,
      "ĠLyn": 8096,
      "ĠMelbourne": 8097,
      "leton": 8098,
      "ĠTelevision": 8099,
      "ĠMuslim": 8100,
      "ois": 8101,
      "Ġliqu": 8102,
      "Ġextent": 8103,
      "Ġbread": 8104,
      "Ġresidential": 8105,
      "ilst": 8106,
      "Ġreun": 8107,
      "Ġ1929": 8108,
      "Ġdiamond": 8109,
      "Ġsubstantial": 8110,
      "gus": 8111,
      "ĠHeart": 8112,
      "ĠJesus": 8113,
      "ĠTurkish": 8114,
      "anta": 8115,
      "Ġlonely": 8116,
      "ĠBudd": 8117,
      "ĠDal": 8118,
      "Ġputs": 8119,
      "ocol": 8120,
      "Ġlinked": 8121,
      "Fin": 8122,
      "Ġvessel": 8123,
      "ĠMerc": 8124,
      "iece": 8125,
      "DS": 8126,
      "Ġtempor": 8127,
      "igen": 8128,
      "Okay": 8129,
      "Ġ1911": 8130,
      "Ġcollaps": 8131,
      "Ġrelationships": 8132,
      "ĠÅ": 8133,
      "ĠLi": 8134,
      "ologists": 8135,
      "Ġutil": 8136,
      "Ġacted": 8137,
      "ĠClinton": 8138,
      "Ġpoison": 8139,
      "Ġinfluences": 8140,
      "Ġsheep": 8141,
      "Ġinhabit": 8142,
      "ĠAround": 8143,
      "Ġ1931": 8144,
      "ĠOd": 8145,
      "Ġrebell": 8146,
      "Ġvideos": 8147,
      "ĠBird": 8148,
      "ĠRAF": 8149,
      "Ġannounce": 8150,
      "ĠRoberts": 8151,
      "Ġlanguages": 8152,
      "ĠLiz": 8153,
      "Ġframe": 8154,
      "ĠWithin": 8155,
      "Ġdetailed": 8156,
      "ĠJason": 8157,
      "mad": 8158,
      "Ġnegotiations": 8159,
      "ĠHistory": 8160,
      "ĠCarib": 8161,
      "ĠSports": 8162,
      "phy": 8163,
      "Ġjunior": 8164,
      "Ġisolated": 8165,
      "rm": 8166,
      "Ġimprison": 8167,
      "Ġlocomot": 8168,
      "Ġanticip": 8169,
      "ĠBobby": 8170,
      "ĠVice": 8171,
      "Ġdisappointed": 8172,
      "Ġbee": 8173,
      "Ġwhist": 8174,
      "Ġpoetry": 8175,
      "ES": 8176,
      "icians": 8177,
      "Ġcircle": 8178,
      "Ġtravelled": 8179,
      "ĠCop": 8180,
      "Ġperiods": 8181,
      "yo": 8182,
      "ĠDer": 8183,
      "Ġterritories": 8184,
      "roke": 8185,
      "ĠCome": 8186,
      "ĠRick": 8187,
      "Ġexplain": 8188,
      "raph": 8189,
      "Ġupgraded": 8190,
      "ĠUlt": 8191,
      "Later": 8192,
      "Ġsigns": 8193,
      "ĠAnthony": 8194,
      "ĠPope": 8195,
      "Ġsimultane": 8196,
      "Ġhonest": 8197,
      "ĠSomers": 8198,
      "ĠMort": 8199,
      "ullivan": 8200,
      "bean": 8201,
      "ĠSimilar": 8202,
      "ribed": 8203,
      "ĠBaltimore": 8204,
      "opping": 8205,
      "ĠChamber": 8206,
      "ĠSilver": 8207,
      "oa": 8208,
      "reck": 8209,
      "Ġinher": 8210,
      "ĠBed": 8211,
      "Ġanch": 8212,
      "Ġwise": 8213,
      "ĠAustria": 8214,
      "Ġtests": 8215,
      "Ġgoods": 8216,
      "Ġnormally": 8217,
      "Ġtalked": 8218,
      "Ġpartly": 8219,
      "Ġ170": 8220,
      "Ġturrets": 8221,
      "ĠLast": 8222,
      "Ġcovers": 8223,
      "Ġmeat": 8224,
      "ĠExpress": 8225,
      "ĠFree": 8226,
      "Ġstronger": 8227,
      "Ġafraid": 8228,
      "Ġgrey": 8229,
      "Ġagents": 8230,
      "Ġtesting": 8231,
      "Ġwithdrew": 8232,
      "Ġtouched": 8233,
      "Ġmart": 8234,
      "ighed": 8235,
      "Ch": 8236,
      "Ġtone": 8237,
      "ican": 8238,
      "oto": 8239,
      "Ġseed": 8240,
      "Ġremind": 8241,
      "Ġplatinum": 8242,
      "Ġtoll": 8243,
      "Ġthir": 8244,
      "orting": 8245,
      "ivery": 8246,
      "obi": 8247,
      "Ġpaintings": 8248,
      "Ġwedding": 8249,
      "Ġbon": 8250,
      "Ġhook": 8251,
      "umph": 8252,
      "Ġfactor": 8253,
      "ĠBulgar": 8254,
      "ropolitan": 8255,
      "Ġforth": 8256,
      "Ġcheered": 8257,
      "eline": 8258,
      "Ġmedicine": 8259,
      "Ġmedium": 8260,
      "Ġlowest": 8261,
      "ĠLibrary": 8262,
      "Ġspecimens": 8263,
      "obile": 8264,
      "Ġrarely": 8265,
      "ĠJake": 8266,
      "Ġwhereas": 8267,
      "ĠQueens": 8268,
      "Ġfrequent": 8269,
      "Me": 8270,
      "orage": 8271,
      "Ġpounds": 8272,
      "Ġfeud": 8273,
      "rising": 8274,
      "Ġsatell": 8275,
      "ĠEvans": 8276,
      "Ġresear": 8277,
      "Ġsoup": 8278,
      "ĠStewart": 8279,
      "Ġprohib": 8280,
      "ĠUt": 8281,
      "hatt": 8282,
      "ĠSamuel": 8283,
      "ĠTower": 8284,
      "Ġsymp": 8285,
      "ffy": 8286,
      "ception": 8287,
      "Ġmeasured": 8288,
      "Ġpersp": 8289,
      "Ġethnic": 8290,
      "Ġmysterious": 8291,
      "ĠEy": 8292,
      "Ġflank": 8293,
      "Ġstruggle": 8294,
      "Ġdiameter": 8295,
      "ĠNevertheless": 8296,
      "helm": 8297,
      "mates": 8298,
      "ĠRey": 8299,
      "Ġcreature": 8300,
      "Ġunderw": 8301,
      "Ġcriticised": 8302,
      "ĠRaw": 8303,
      "shine": 8304,
      "aya": 8305,
      "rior": 8306,
      "ĠFlu": 8307,
      "ĠUnlike": 8308,
      "ĠAlbums": 8309,
      "icked": 8310,
      "Ġbehavi": 8311,
      "Ġpale": 8312,
      "ĠGuy": 8313,
      "Ġtot": 8314,
      "Ġexcell": 8315,
      "orial": 8316,
      "Ġreleases": 8317,
      "Ġdeter": 8318,
      "Ġcriminal": 8319,
      "Ġreprod": 8320,
      "ĠLane": 8321,
      "amese": 8322,
      "ĠÃĹ": 8323,
      "Ġvice": 8324,
      "Ġcomplic": 8325,
      "Ġcopy": 8326,
      "ses": 8327,
      "ski": 8328,
      "ĠHell": 8329,
      "ogan": 8330,
      "Ġovers": 8331,
      "ĠArk": 8332,
      "Ġmaintenance": 8333,
      "Ġsalt": 8334,
      "oming": 8335,
      "Ġfinale": 8336,
      "Ġshear": 8337,
      "Ġjoining": 8338,
      "Ġing": 8339,
      "ĠGiants": 8340,
      "Ġmainstream": 8341,
      "Ġborrow": 8342,
      "Ġbypass": 8343,
      "anton": 8344,
      "Ġraid": 8345,
      "Ġcompete": 8346,
      "arts": 8347,
      "mers": 8348,
      "Ġforcing": 8349,
      "Ġmyst": 8350,
      "ĠColorado": 8351,
      "Ġuncertain": 8352,
      "Ġfighters": 8353,
      "Ġprize": 8354,
      "ĠLennon": 8355,
      "Ġdesigner": 8356,
      "Ġprompted": 8357,
      "Ġrestrict": 8358,
      "Ġdiagn": 8359,
      "Ġproced": 8360,
      "Ġdifficulties": 8361,
      "olis": 8362,
      "ĠAnglo": 8363,
      "ĠFa": 8364,
      "Ġverse": 8365,
      "ĠFamily": 8366,
      "ĠStock": 8367,
      "30": 8368,
      "Ġpartially": 8369,
      "iami": 8370,
      "Ġrestric": 8371,
      "Ġtechnique": 8372,
      "ĠHop": 8373,
      "idi": 8374,
      "owed": 8375,
      "ĠObs": 8376,
      "assed": 8377,
      "Ġconcerts": 8378,
      "Ġrhythm": 8379,
      "li": 8380,
      "Ġdiet": 8381,
      "olas": 8382,
      "Ġengineer": 8383,
      "Sure": 8384,
      "Ġlem": 8385,
      "Ġdestroyers": 8386,
      "Ġtenth": 8387,
      "Ġalive": 8388,
      "Ġhighl": 8389,
      "Ġpersonality": 8390,
      "Ġhull": 8391,
      "Ġalter": 8392,
      "Ġdollars": 8393,
      "udes": 8394,
      "Ġfounder": 8395,
      "Ġearthqu": 8396,
      "Ġpalace": 8397,
      "Ġlect": 8398,
      "Ġloop": 8399,
      "Ġrefuge": 8400,
      "endment": 8401,
      "Ġimpossible": 8402,
      "Ġclock": 8403,
      "ĠEduc": 8404,
      "Ġextreme": 8405,
      "Ġapproval": 8406,
      "ĠTreaty": 8407,
      "uda": 8408,
      "borough": 8409,
      "Ġchronic": 8410,
      "Ġupd": 8411,
      "Ġaudio": 8412,
      "ĠAuthor": 8413,
      "oken": 8414,
      "Ġprotest": 8415,
      "Ġpric": 8416,
      "Ġdiver": 8417,
      "Ġchanging": 8418,
      "Ġelephant": 8419,
      "Ġcomments": 8420,
      "sea": 8421,
      "ĠKnight": 8422,
      "ĠChronic": 8423,
      "Ġaged": 8424,
      "ĠMario": 8425,
      "ĠGreece": 8426,
      "Ġpitched": 8427,
      "Ġrefers": 8428,
      "Ġ1925": 8429,
      "mission": 8430,
      "rations": 8431,
      "ĠUnivers": 8432,
      "Ġbron": 8433,
      "Ġdiff": 8434,
      "Ġ1928": 8435,
      "MA": 8436,
      "rum": 8437,
      "Ġreact": 8438,
      "ĠBol": 8439,
      "ĠUSA": 8440,
      "anz": 8441,
      "gery": 8442,
      "nest": 8443,
      "Ġrivers": 8444,
      "Ġcovering": 8445,
      "Ġinsc": 8446,
      "Ġfallen": 8447,
      "Ġcrisis": 8448,
      "Ġdescribe": 8449,
      "Ġorganizations": 8450,
      "Ġdisplayed": 8451,
      "Ġphen": 8452,
      "ĠDeb": 8453,
      "ĠOt": 8454,
      "Ġpolicies": 8455,
      "ĠCz": 8456,
      "ĠAlong": 8457,
      "Ġminimum": 8458,
      "Ġ1890": 8459,
      "Ġescaped": 8460,
      "Ġchurches": 8461,
      "Ġuncom": 8462,
      "Ġunderground": 8463,
      "ĠEst": 8464,
      "ĠKu": 8465,
      "Ġapple": 8466,
      "ĠSnow": 8467,
      "ĠFrederick": 8468,
      "Ġjur": 8469,
      "amps": 8470,
      "ĠHorse": 8471,
      "Ġreaches": 8472,
      "urance": 8473,
      "Ġrates": 8474,
      "Ġexit": 8475,
      "Ġjazz": 8476,
      "Ġperce": 8477,
      "Ġrepresentative": 8478,
      "Ġmountains": 8479,
      "Ġinaug": 8480,
      "Ġprotagonist": 8481,
      "Ġspr": 8482,
      "ĠTrek": 8483,
      "Ġoxygen": 8484,
      "Ġfastest": 8485,
      "Why": 8486,
      "Ġusual": 8487,
      "Ġsurvive": 8488,
      "Ġnoises": 8489,
      "ĠSomerset": 8490,
      "itated": 8491,
      "ĠMiami": 8492,
      "ĠHorn": 8493,
      "Ġranking": 8494,
      "Ġswam": 8495,
      "Ġbombers": 8496,
      "ĠCanal": 8497,
      "ĠAlice": 8498,
      "Ġdivor": 8499,
      "ĠMarshall": 8500,
      "Ġpossession": 8501,
      "Ġhousing": 8502,
      "inction": 8503,
      "Ġclever": 8504,
      "ĠTy": 8505,
      "Ġreward": 8506,
      "ĠCaribbean": 8507,
      "Ġmand": 8508,
      "Ġphr": 8509,
      "Ã©e": 8510,
      "Ġvillages": 8511,
      "Ġstorms": 8512,
      "Ġcreator": 8513,
      "abama": 8514,
      "isd": 8515,
      "Ġunn": 8516,
      "Ġdecides": 8517,
      "Ġsoldier": 8518,
      "Ġmamm": 8519,
      "ĠAustralians": 8520,
      "Ġarriving": 8521,
      "Ġprepare": 8522,
      "ĠUSD": 8523,
      "Ġrug": 8524,
      "ĠGilbert": 8525,
      "Ġexplo": 8526,
      "ĠEmily": 8527,
      "Finally": 8528,
      "Ġtheater": 8529,
      "Ġmonument": 8530,
      "Ġappointment": 8531,
      "thy": 8532,
      "Ġtwin": 8533,
      "FC": 8534,
      "Ġturb": 8535,
      "imeter": 8536,
      "oga": 8537,
      "Ġfinals": 8538,
      "Ġ08": 8539,
      "ĠTro": 8540,
      "Ġjar": 8541,
      "Ġsharing": 8542,
      "agged": 8543,
      "Ġcanal": 8544,
      "Ġ1924": 8545,
      "Ġbrilliant": 8546,
      "Ġscientists": 8547,
      "ĠWing": 8548,
      "col": 8549,
      "Ġdanger": 8550,
      "Ġnewspapers": 8551,
      "ails": 8552,
      "Ġprince": 8553,
      "Ġswitch": 8554,
      "Ġadvis": 8555,
      "Ġadjacent": 8556,
      "ifer": 8557,
      "Ġrecur": 8558,
      "Ġfriendship": 8559,
      "Ġcollapse": 8560,
      "Ġhonour": 8561,
      "Ġgrav": 8562,
      "Ġstones": 8563,
      "Ġbases": 8564,
      "Ġembarr": 8565,
      "ĠMississ": 8566,
      "ĠRu": 8567,
      "ĠBros": 8568,
      "ĠHans": 8569,
      "rupted": 8570,
      "Ġsugar": 8571,
      "ĠSeattle": 8572,
      "Ġrecommend": 8573,
      "Ġlights": 8574,
      "Ġcooper": 8575,
      "Ġtreaty": 8576,
      "Ġpatterns": 8577,
      "Ġsank": 8578,
      "utt": 8579,
      "Ġseeking": 8580,
      "Ġcray": 8581,
      "ĠMalays": 8582,
      "atus": 8583,
      "ivated": 8584,
      "Ġtrend": 8585,
      "Ġreluct": 8586,
      "Ġsympt": 8587,
      "Ġels": 8588,
      "imb": 8589,
      "unc": 8590,
      "Ġinnov": 8591,
      "Ġx": 8592,
      "Ġunlike": 8593,
      "Ġminimal": 8594,
      "Ġcalm": 8595,
      "Ġpartnership": 8596,
      "Ġelsewhere": 8597,
      "Ġpir": 8598,
      "Ġrefere": 8599,
      "ĠFoundation": 8600,
      "ĠCR": 8601,
      "encing": 8602,
      "Ġdynasty": 8603,
      "ĠEventually": 8604,
      "ĠTownship": 8605,
      "usal": 8606,
      "Ġtribute": 8607,
      "Ġwilling": 8608,
      "Ġ05": 8609,
      "Ġpowered": 8610,
      "ĠLate": 8611,
      "Ġsuicide": 8612,
      "talions": 8613,
      "Ġmushroom": 8614,
      "Ġrecordings": 8615,
      "ĠBuff": 8616,
      "Ġ1923": 8617,
      "ĠLin": 8618,
      "Ġbutton": 8619,
      "aughty": 8620,
      "Ġoccasions": 8621,
      "ĠReal": 8622,
      "Ġpleased": 8623,
      "Ġexamples": 8624,
      "Ġinstrumental": 8625,
      "Ġracing": 8626,
      "Ġbenefit": 8627,
      "Ġabilities": 8628,
      "Ġrecover": 8629,
      "ĠGuardian": 8630,
      "Ġweaken": 8631,
      "Ġforests": 8632,
      "Ġsteps": 8633,
      "spec": 8634,
      "ĠForces": 8635,
      "Ġremov": 8636,
      "nik": 8637,
      "Ġthunder": 8638,
      "acle": 8639,
      "Ġrounds": 8640,
      "Ġpilots": 8641,
      "ĠVietnamese": 8642,
      "Ġeliminated": 8643,
      "Ġhiding": 8644,
      "icts": 8645,
      "Ġshirt": 8646,
      "berry": 8647,
      "Ġresumed": 8648,
      "ĠAlabama": 8649,
      "Ġradar": 8650,
      "orious": 8651,
      "Ġswings": 8652,
      "Ġoption": 8653,
      "ĠBud": 8654,
      "Ġdescription": 8655,
      "wa": 8656,
      "ĠML": 8657,
      "ĠBuck": 8658,
      "Ġvaluable": 8659,
      "Ġmane": 8660,
      "Ġintensified": 8661,
      "Ġprecip": 8662,
      "ĠDur": 8663,
      "erves": 8664,
      "ĠAcc": 8665,
      "ĠMP": 8666,
      "Ġjew": 8667,
      "Ġloves": 8668,
      "Ġ09": 8669,
      "Ġsword": 8670,
      "forced": 8671,
      "Ġdisagre": 8672,
      "Ġfactory": 8673,
      "Re": 8674,
      "iveness": 8675,
      "Ġanaly": 8676,
      "ĠBelgium": 8677,
      "Ġcraw": 8678,
      "Ġstops": 8679,
      "ĠLock": 8680,
      "Ġyield": 8681,
      "velt": 8682,
      "ĠNazi": 8683,
      "Ġpublicly": 8684,
      "ĠGrammy": 8685,
      "Ġvalues": 8686,
      "ĠHungary": 8687,
      "onnaissance": 8688,
      "ĠMissou": 8689,
      "Ġprocl": 8690,
      "Ġsurvivors": 8691,
      "ĠLawrence": 8692,
      "anna": 8693,
      "ishment": 8694,
      "Ġsigning": 8695,
      "ĠMinnes": 8696,
      "Ġdispute": 8697,
      "idae": 8698,
      "Ġcharacteristics": 8699,
      "ĠDiego": 8700,
      "Äį": 8701,
      "Ġchamber": 8702,
      "Ġvictories": 8703,
      "ĠCall": 8704,
      "Ġorb": 8705,
      "Ġviolent": 8706,
      "Ġoccupation": 8707,
      "xual": 8708,
      "Ġschedule": 8709,
      "Ġvel": 8710,
      "Ġgust": 8711,
      "Ġorbit": 8712,
      "ungle": 8713,
      "Ġindicate": 8714,
      "Ġargument": 8715,
      "ĠGa": 8716,
      "PA": 8717,
      "Ġjack": 8718,
      "ĠMinistry": 8719,
      "ĠNat": 8720,
      "urday": 8721,
      "Ġprosp": 8722,
      "Ġclapped": 8723,
      "ĠSupp": 8724,
      "ĠHeavy": 8725,
      "ĠNapole": 8726,
      "Ġoverw": 8727,
      "Ġinsisted": 8728,
      "ĠSocial": 8729,
      "ĠHamp": 8730,
      "ĠDeath": 8731,
      "Ġpurposes": 8732,
      "munition": 8733,
      "Ġrig": 8734,
      "Ġagricultural": 8735,
      "oust": 8736,
      "Ġcompeted": 8737,
      "Ġemperor": 8738,
      "asp": 8739,
      "ĠCru": 8740,
      "Ġpreserved": 8741,
      "ĠSym": 8742,
      "Ġcelebrated": 8743,
      "roid": 8744,
      "ĠJenn": 8745,
      "Ġputting": 8746,
      "Ġdegrees": 8747,
      "Ġciting": 8748,
      "Ġfoundation": 8749,
      "Ġaimed": 8750,
      "Ġforty": 8751,
      "Ġsuitable": 8752,
      "lled": 8753,
      "Ġtape": 8754,
      "ĠTob": 8755,
      "ĠAR": 8756,
      "ĠFI": 8757,
      "Ġfavourite": 8758,
      "ĠPeninsula": 8759,
      "Hi": 8760,
      "Ġnations": 8761,
      "ĠCrown": 8762,
      "ĠHockey": 8763,
      "ante": 8764,
      "Ġevil": 8765,
      "Ġmines": 8766,
      "Ġhabitat": 8767,
      "Ġsung": 8768,
      "Ġabsol": 8769,
      "Ġcandidates": 8770,
      "rain": 8771,
      "Ġ125": 8772,
      "Ġfifteen": 8773,
      "Ġmurd": 8774,
      "Ġconcrete": 8775,
      "ĠRecording": 8776,
      "Ġneutral": 8777,
      "Ġbull": 8778,
      "ĠBaby": 8779,
      "Ġrepairs": 8780,
      "ĠTrust": 8781,
      "Ġalignment": 8782,
      "da": 8783,
      "ĠSenator": 8784,
      "father": 8785,
      "Ġdressed": 8786,
      "ulating": 8787,
      "Ġloan": 8788,
      "ĠIowa": 8789,
      "Ġcoff": 8790,
      "osevelt": 8791,
      "To": 8792,
      "isp": 8793,
      "Ġnerv": 8794,
      "Ġadvoc": 8795,
      "Ġ1908": 8796,
      "Ġbusinesses": 8797,
      "Ġconsult": 8798,
      "ĠGarden": 8799,
      "Ġmulti": 8800,
      "Ġgard": 8801,
      "no": 8802,
      "ĠSaturday": 8803,
      "ĠDance": 8804,
      "Ġelectronic": 8805,
      "otes": 8806,
      "Ġmanusc": 8807,
      "angers": 8808,
      "ĠHu": 8809,
      "Ġ1905": 8810,
      "rim": 8811,
      "ĠMun": 8812,
      "Ġdefeating": 8813,
      "Ġclosing": 8814,
      "Ġninet": 8815,
      "jamin": 8816,
      "ecraft": 8817,
      "Ġsimpl": 8818,
      "Ã§": 8819,
      "ĠHud": 8820,
      "cho": 8821,
      "Ġrope": 8822,
      "Ġ105": 8823,
      "Ġsituated": 8824,
      "nament": 8825,
      "Ġovert": 8826,
      "Ġsubjects": 8827,
      "arsh": 8828,
      "SP": 8829,
      "Ġencounter": 8830,
      "ĠShakesp": 8831,
      "Ġ1909": 8832,
      "ĠAlfred": 8833,
      "Ġsearched": 8834,
      "hattan": 8835,
      "Ġmarks": 8836,
      "Ġdisaster": 8837,
      "ĠThroughout": 8838,
      "atherine": 8839,
      "Ġinstruct": 8840,
      "Ġscholar": 8841,
      "rome": 8842,
      "Ġelabor": 8843,
      "Ġcorpor": 8844,
      "Ġcontroll": 8845,
      "Ġdies": 8846,
      "Ġassisted": 8847,
      "Ġdownload": 8848,
      "Ġammunition": 8849,
      "Ġprompt": 8850,
      "Ġsmoke": 8851,
      "Mia": 8852,
      "ĠHand": 8853,
      "Ġsuperv": 8854,
      "lings": 8855,
      "Ġarts": 8856,
      "Ġattract": 8857,
      "Ġtid": 8858,
      "Ġlieutenant": 8859,
      "Ġtargets": 8860,
      "ĠGab": 8861,
      "Ġserial": 8862,
      "Ġparish": 8863,
      "Ġsisters": 8864,
      "inals": 8865,
      "ĠShel": 8866,
      "Ġjunction": 8867,
      "Ġbackyard": 8868,
      "Ġvisiting": 8869,
      "Ġspiritual": 8870,
      "Ġfamiliar": 8871,
      "Ġdesignation": 8872,
      "Ġcous": 8873,
      "ĠHills": 8874,
      "Ġaudiences": 8875,
      "rep": 8876,
      "Ġshook": 8877,
      "Ġsubmitted": 8878,
      "Ġarrive": 8879,
      "ĠÄ": 8880,
      "ĠLim": 8881,
      "Ġknowing": 8882,
      "Ġdeliber": 8883,
      "ĠRoosevelt": 8884,
      "Ġsucceed": 8885,
      "Ġfeathers": 8886,
      "orph": 8887,
      "Ġtent": 8888,
      "Ġcateg": 8889,
      "ĠRachel": 8890,
      "ĠKit": 8891,
      "ĠLam": 8892,
      "ĠKhan": 8893,
      "Ġimperial": 8894,
      "Ġinfr": 8895,
      "Ġpoorly": 8896,
      "Ġwire": 8897,
      "ĠRab": 8898,
      "Ġ164": 8899,
      "Ġillness": 8900,
      "ĠÃĨ": 8901,
      "Ġjuice": 8902,
      "Ġgif": 8903,
      "ĠManhattan": 8904,
      "Ġdisappeared": 8905,
      "ĠCountry": 8906,
      "Ġengineering": 8907,
      "bre": 8908,
      "Ġbid": 8909,
      "Ġassists": 8910,
      "ĠAh": 8911,
      "Ġbehalf": 8912,
      "Ġbush": 8913,
      "Ġattendance": 8914,
      "ĠKurt": 8915,
      "ĠMov": 8916,
      "ĠMississipp": 8917,
      "wo": 8918,
      "ĠMinnesota": 8919,
      "Ġoffering": 8920,
      "Ġ165": 8921,
      "mith": 8922,
      "Ġpy": 8923,
      "Ġchase": 8924,
      "Ġsolution": 8925,
      "Ġfavorable": 8926,
      "bal": 8927,
      "ographical": 8928,
      "uzz": 8929,
      "ĠLl": 8930,
      "osy": 8931,
      "Ġcompleting": 8932,
      "Ġrocket": 8933,
      "Ġunex": 8934,
      "ĠNik": 8935,
      "Ġvoiced": 8936,
      "Ġrising": 8937,
      "Ġresolution": 8938,
      "Ġcoordin": 8939,
      "Ġflights": 8940,
      "Ġcargo": 8941,
      "Ġjumping": 8942,
      "Ġstruggled": 8943,
      "ĠDC": 8944,
      "Ġdirectors": 8945,
      "Ġclearly": 8946,
      "Ġgod": 8947,
      "ĠAud": 8948,
      "ĠBlood": 8949,
      "Ġcollaboration": 8950,
      "Ġlift": 8951,
      "ctic": 8952,
      "Ġbottle": 8953,
      "Ġprol": 8954,
      "Ġpron": 8955,
      "ĠCole": 8956,
      "eare": 8957,
      "ĠMach": 8958,
      "rams": 8959,
      "Ġballs": 8960,
      "ĠHindu": 8961,
      "ĠIndustry": 8962,
      "alities": 8963,
      "ĠMik": 8964,
      "ĠFranklin": 8965,
      "ĠCamer": 8966,
      "ĠBull": 8967,
      "ĠLaure": 8968,
      "onymous": 8969,
      "rix": 8970,
      "Ġcompetitive": 8971,
      "Ġsuspended": 8972,
      "Ġcheese": 8973,
      "Ġtemporarily": 8974,
      "Ġfifty": 8975,
      "sky": 8976,
      "aron": 8977,
      "ĠLook": 8978,
      "Ġoperational": 8979,
      "ĠWalker": 8980,
      "Ġfiled": 8981,
      "ĠIan": 8982,
      "odore": 8983,
      "Ġabol": 8984,
      "asters": 8985,
      "agen": 8986,
      "ĠChampionships": 8987,
      "Ġapolog": 8988,
      "Ġpercentage": 8989,
      "Ġfurn": 8990,
      "ĠKal": 8991,
      "Ġreflected": 8992,
      "ensions": 8993,
      "Ġadopt": 8994,
      "Ġ1880": 8995,
      "ĠPap": 8996,
      "ĠDead": 8997,
      "Ġregistered": 8998,
      "ĠFriend": 8999,
      "Ġrolled": 9000,
      "Ġ1907": 9001,
      "ĠRepresent": 9002,
      "Ġconscious": 9003,
      "dale": 9004,
      "ori": 9005,
      "Ġreplacing": 9006,
      "Ġdemanded": 9007,
      "Ġeru": 9008,
      "ĠLith": 9009,
      "Ġamongst": 9010,
      "ĠExt": 9011,
      "Ġaffairs": 9012,
      "ĠMichel": 9013,
      "ĠArea": 9014,
      "ĠHotel": 9015,
      "Ġfuneral": 9016,
      "ĠPortland": 9017,
      "Ġinterpre": 9018,
      "itting": 9019,
      "rows": 9020,
      "Ġbay": 9021,
      "Ġhorror": 9022,
      "Ġtowers": 9023,
      "Ġsuggesting": 9024,
      "Äĥ": 9025,
      "ĠStory": 9026,
      "Ġdocuments": 9027,
      "Ġhelps": 9028,
      "Ġbanks": 9029,
      "Ġparent": 9030,
      "10": 9031,
      "Ġiniti": 9032,
      "amic": 9033,
      "ĠBenjamin": 9034,
      "Ġwalks": 9035,
      "Ġprofessor": 9036,
      "Ġexplosion": 9037,
      "Of": 9038,
      "ËĪ": 9039,
      "ĠMes": 9040,
      "outing": 9041,
      "ĠBanks": 9042,
      "ĠDiv": 9043,
      "ĠWol": 9044,
      "ĠCre": 9045,
      "ĠNash": 9046,
      "ĠIce": 9047,
      "orders": 9048,
      "ĠCyr": 9049,
      "resents": 9050,
      "izard": 9051,
      "Ġopponent": 9052,
      "Ġtube": 9053,
      "Ġinvestigate": 9054,
      "Ġresidence": 9055,
      "Ġalliance": 9056,
      "Ġrecognised": 9057,
      "Ġ360": 9058,
      "Ġprinted": 9059,
      "Ġentertainment": 9060,
      "ĠSon": 9061,
      "Ġpapers": 9062,
      "ĠRand": 9063,
      "Ġsequences": 9064,
      "Ġrebuilt": 9065,
      "anium": 9066,
      "ĠLeo": 9067,
      "Ġtooth": 9068,
      "ĠSullivan": 9069,
      "Ġmusician": 9070,
      "ĠTenness": 9071,
      "emen": 9072,
      "odge": 9073,
      "Ġdistant": 9074,
      "Ġaffair": 9075,
      "ãģ": 9076,
      "istent": 9077,
      "Ġlacked": 9078,
      "Ġdramatic": 9079,
      "ĠTun": 9080,
      "ques": 9081,
      "ĠVI": 9082,
      "Ġperspective": 9083,
      "Ġkings": 9084,
      "Ġreven": 9085,
      "Ġ07": 9086,
      "Ġwider": 9087,
      "sex": 9088,
      "ĠChristopher": 9089,
      "ĠInterstate": 9090,
      "Ġsector": 9091,
      "Ġamounts": 9092,
      "ĠJosh": 9093,
      "aver": 9094,
      "idel": 9095,
      "Ġsup": 9096,
      "Ġfrig": 9097,
      "ĠAlexand": 9098,
      "Since": 9099,
      "eled": 9100,
      "Ġprime": 9101,
      "ĠLev": 9102,
      "Ġexplains": 9103,
      "Ġwondered": 9104,
      "Ġtribes": 9105,
      "ĠHong": 9106,
      "ĠKansas": 9107,
      "inea": 9108,
      "Ġrepresents": 9109,
      "Ġpoems": 9110,
      "ĠMississippi": 9111,
      "Ġpages": 9112,
      "ĠBh": 9113,
      "Ġrit": 9114,
      "ĠNative": 9115,
      "ĠWard": 9116,
      "Ġcompilation": 9117,
      "Ġcrack": 9118,
      "ĠChildren": 9119,
      "Ġgap": 9120,
      "ĠCold": 9121,
      "unction": 9122,
      "ĠWolf": 9123,
      "Ġcancelled": 9124,
      "Ġpreparation": 9125,
      "ĠJerry": 9126,
      "ĠDevelopment": 9127,
      "ĠShakespeare": 9128,
      "ĠAff": 9129,
      "Ġterror": 9130,
      "ĠDw": 9131,
      "ĠBlues": 9132,
      "ĠEgyptian": 9133,
      "ellect": 9134,
      "ĠAdv": 9135,
      "Ġtouring": 9136,
      "ĠFried": 9137,
      "Ġarmored": 9138,
      "ĠLouisiana": 9139,
      "Ġticket": 9140,
      "Ġbark": 9141,
      "ylan": 9142,
      "Ġfier": 9143,
      "ĠLad": 9144,
      "Ġbatter": 9145,
      "ĠBrun": 9146,
      "itchell": 9147,
      "ĠMontreal": 9148,
      "Ġalcohol": 9149,
      "orer": 9150,
      "Ġbrick": 9151,
      "CC": 9152,
      "Ġlists": 9153,
      "Ġshock": 9154,
      "Ġvic": 9155,
      "Ġargues": 9156,
      "Ġpredomin": 9157,
      "cles": 9158,
      "Ġtea": 9159,
      "Ġengagement": 9160,
      "ĠLucas": 9161,
      "Ġmerchant": 9162,
      "ĠWhy": 9163,
      "ĠOrgan": 9164,
      "eton": 9165,
      "Ġbeauty": 9166,
      "ĠPalest": 9167,
      "Ġlaughing": 9168,
      "Ġjet": 9169,
      "Ġlob": 9170,
      "ĠVinc": 9171,
      "gate": 9172,
      "era": 9173,
      "Ġrestoration": 9174,
      "Ġcommunication": 9175,
      "ĠInitially": 9176,
      "ĠTennessee": 9177,
      "ĠKings": 9178,
      "zed": 9179,
      "urally": 9180,
      "ĠRub": 9181,
      "Ġretail": 9182,
      "ĠFal": 9183,
      "ĠPhilippines": 9184,
      "Ġearning": 9185,
      "Ġfunctions": 9186,
      "Ġscattered": 9187,
      "Ġremnants": 9188,
      "Ġseverely": 9189,
      "ĠCampbell": 9190,
      "uma": 9191,
[...]
